unsigned char eurosat_tflite[] = {
  0x1c, 0x00, 0x00, 0x00, 0x54, 0x46, 0x4c, 0x33, 0x14, 0x00, 0x20, 0x00,
  0x04, 0x00, 0x08, 0x00, 0x0c, 0x00, 0x10, 0x00, 0x14, 0x00, 0x00, 0x00,
  0x18, 0x00, 0x1c, 0x00, 0x14, 0x00, 0x00, 0x00, 0x03, 0x00, 0x00, 0x00,
  0xb0, 0x00, 0x00, 0x00, 0xa4, 0x00, 0x00, 0x00, 0x98, 0x01, 0x00, 0x00,
  0x0c, 0x00, 0x00, 0x00, 0x40, 0x01, 0x00, 0x00, 0xc0, 0x00, 0x00, 0x00,
  0x23, 0x00, 0x00, 0x00, 0x64, 0x91, 0x00, 0x00, 0x60, 0x91, 0x00, 0x00,
  0x58, 0x90, 0x00, 0x00, 0x80, 0x8a, 0x00, 0x00, 0x28, 0x88, 0x00, 0x00,
  0xe0, 0x84, 0x00, 0x00, 0x60, 0x82, 0x00, 0x00, 0xd8, 0x76, 0x00, 0x00,
  0x74, 0x72, 0x00, 0x00, 0xa4, 0x6c, 0x00, 0x00, 0x20, 0x68, 0x00, 0x00,
  0x9c, 0x63, 0x00, 0x00, 0x14, 0x50, 0x00, 0x00, 0xb0, 0x4b, 0x00, 0x00,
  0xdc, 0x45, 0x00, 0x00, 0x58, 0x1f, 0x00, 0x00, 0xf4, 0x16, 0x00, 0x00,
  0x80, 0x11, 0x00, 0x00, 0xf0, 0x10, 0x00, 0x00, 0x18, 0x91, 0x00, 0x00,
  0x14, 0x91, 0x00, 0x00, 0x10, 0x91, 0x00, 0x00, 0x0c, 0x91, 0x00, 0x00,
  0x08, 0x91, 0x00, 0x00, 0x04, 0x91, 0x00, 0x00, 0x00, 0x91, 0x00, 0x00,
  0xfc, 0x90, 0x00, 0x00, 0xf8, 0x90, 0x00, 0x00, 0xf4, 0x90, 0x00, 0x00,
  0xf0, 0x90, 0x00, 0x00, 0xec, 0x90, 0x00, 0x00, 0xe8, 0x90, 0x00, 0x00,
  0xe4, 0x90, 0x00, 0x00, 0xe0, 0x90, 0x00, 0x00, 0xe0, 0x00, 0x00, 0x00,
  0x01, 0x00, 0x00, 0x00, 0x18, 0x01, 0x00, 0x00, 0x08, 0x00, 0x00, 0x00,
  0x04, 0x10, 0x00, 0x00, 0xc4, 0x0e, 0x00, 0x00, 0xc4, 0x0d, 0x00, 0x00,
  0xac, 0x0c, 0x00, 0x00, 0x40, 0x04, 0x00, 0x00, 0x74, 0x03, 0x00, 0x00,
  0xb4, 0x02, 0x00, 0x00, 0x1c, 0x02, 0x00, 0x00, 0x01, 0x00, 0x00, 0x00,
  0x10, 0x00, 0x00, 0x00, 0x00, 0x00, 0x0a, 0x00, 0x10, 0x00, 0x0c, 0x00,
  0x08, 0x00, 0x04, 0x00, 0x0a, 0x00, 0x00, 0x00, 0x0c, 0x00, 0x00, 0x00,
  0x1c, 0x00, 0x00, 0x00, 0x20, 0x00, 0x00, 0x00, 0x0f, 0x00, 0x00, 0x00,
  0x73, 0x65, 0x72, 0x76, 0x69, 0x6e, 0x67, 0x5f, 0x64, 0x65, 0x66, 0x61,
  0x75, 0x6c, 0x74, 0x00, 0x01, 0x00, 0x00, 0x00, 0x14, 0x00, 0x00, 0x00,
  0x01, 0x00, 0x00, 0x00, 0x24, 0x00, 0x00, 0x00, 0x08, 0x00, 0x0c, 0x00,
  0x08, 0x00, 0x04, 0x00, 0x08, 0x00, 0x00, 0x00, 0x20, 0x00, 0x00, 0x00,
  0x04, 0x00, 0x00, 0x00, 0x07, 0x00, 0x00, 0x00, 0x64, 0x65, 0x6e, 0x73,
  0x65, 0x5f, 0x35, 0x00, 0xc6, 0x70, 0xff, 0xff, 0x04, 0x00, 0x00, 0x00,
  0x07, 0x00, 0x00, 0x00, 0x69, 0x6e, 0x70, 0x75, 0x74, 0x5f, 0x36, 0x00,
  0x01, 0x00, 0x00, 0x00, 0x0c, 0x00, 0x00, 0x00, 0x08, 0x00, 0x0c, 0x00,
  0x04, 0x00, 0x08, 0x00, 0x08, 0x00, 0x00, 0x00, 0x08, 0x00, 0x00, 0x00,
  0x22, 0x00, 0x00, 0x00, 0x13, 0x00, 0x00, 0x00, 0x6d, 0x69, 0x6e, 0x5f,
  0x72, 0x75, 0x6e, 0x74, 0x69, 0x6d, 0x65, 0x5f, 0x76, 0x65, 0x72, 0x73,
  0x69, 0x6f, 0x6e, 0x00, 0x0e, 0x71, 0xff, 0xff, 0x04, 0x00, 0x00, 0x00,
  0x10, 0x00, 0x00, 0x00, 0x31, 0x2e, 0x31, 0x34, 0x2e, 0x30, 0x00, 0x00,
  0x00, 0x00, 0x00, 0x00, 0x00, 0x00, 0x00, 0x00, 0x0f, 0x00, 0x00, 0x00,
  0x4d, 0x4c, 0x49, 0x52, 0x20, 0x43, 0x6f, 0x6e, 0x76, 0x65, 0x72, 0x74,
  0x65, 0x64, 0x2e, 0x00, 0x00, 0x00, 0x0e, 0x00, 0x18, 0x00, 0x04, 0x00,
  0x08, 0x00, 0x0c, 0x00, 0x10, 0x00, 0x14, 0x00, 0x0e, 0x00, 0x00, 0x00,
  0x70, 0x00, 0x00, 0x00, 0x64, 0x00, 0x00, 0x00, 0x58, 0x00, 0x00, 0x00,
  0x14, 0x00, 0x00, 0x00, 0x04, 0x00, 0x00, 0x00, 0x04, 0x00, 0x00, 0x00,
  0x6d, 0x61, 0x69, 0x6e, 0x00, 0x00, 0x00, 0x00, 0x0f, 0x00, 0x00, 0x00,
  0xa4, 0x0e, 0x00, 0x00, 0x40, 0x0d, 0x00, 0x00, 0x3c, 0x0c, 0x00, 0x00,
  0x24, 0x0b, 0x00, 0x00, 0xb4, 0x09, 0x00, 0x00, 0xe0, 0x08, 0x00, 0x00,
  0xf4, 0x07, 0x00, 0x00, 0x80, 0x06, 0x00, 0x00, 0xac, 0x05, 0x00, 0x00,
  0xc0, 0x04, 0x00, 0x00, 0x84, 0x03, 0x00, 0x00, 0xbc, 0x02, 0x00, 0x00,
  0xec, 0x01, 0x00, 0x00, 0x30, 0x01, 0x00, 0x00, 0xa8, 0x00, 0x00, 0x00,
  0x01, 0x00, 0x00, 0x00, 0x20, 0x00, 0x00, 0x00, 0x01, 0x00, 0x00, 0x00,
  0x00, 0x00, 0x00, 0x00, 0x21, 0x00, 0x00, 0x00, 0xdc, 0x8e, 0x00, 0x00,
  0x60, 0x8e, 0x00, 0x00, 0xd0, 0x8b, 0x00, 0x00, 0x98, 0x86, 0x00, 0x00,
  0xf0, 0x83, 0x00, 0x00, 0xd0, 0x80, 0x00, 0x00, 0xc8, 0x7c, 0x00, 0x00,
  0x64, 0x71, 0x00, 0x00, 0xd4, 0x6c, 0x00, 0x00, 0x10, 0x67, 0x00, 0x00,
  0x8c, 0x62, 0x00, 0x00, 0x04, 0x5e, 0x00, 0x00, 0xa0, 0x4a, 0x00, 0x00,
  0x0c, 0x46, 0x00, 0x00, 0x48, 0x3d, 0x00, 0x00, 0xe4, 0x16, 0x00, 0x00,
  0x70, 0x14, 0x00, 0x00, 0x08, 0x0f, 0x00, 0x00, 0x58, 0x0e, 0x00, 0x00,
  0x04, 0x0d, 0x00, 0x00, 0x04, 0x0c, 0x00, 0x00, 0xec, 0x0a, 0x00, 0x00,
  0x5c, 0x09, 0x00, 0x00, 0x88, 0x08, 0x00, 0x00, 0xa0, 0x07, 0x00, 0x00,
  0x28, 0x06, 0x00, 0x00, 0x54, 0x05, 0x00, 0x00, 0x6c, 0x04, 0x00, 0x00,
  0x2c, 0x03, 0x00, 0x00, 0x64, 0x02, 0x00, 0x00, 0x98, 0x01, 0x00, 0x00,
  0xd8, 0x00, 0x00, 0x00, 0x40, 0x00, 0x00, 0x00, 0x00, 0x00, 0x0a, 0x00,
  0x10, 0x00, 0x04, 0x00, 0x08, 0x00, 0x0c, 0x00, 0x0a, 0x00, 0x00, 0x00,
  0x07, 0x00, 0x00, 0x00, 0x10, 0x00, 0x00, 0x00, 0x04, 0x00, 0x00, 0x00,
  0x01, 0x00, 0x00, 0x00, 0x20, 0x00, 0x00, 0x00, 0x01, 0x00, 0x00, 0x00,
  0x1f, 0x00, 0x00, 0x00, 0x40, 0xf2, 0xff, 0xff, 0x06, 0x00, 0x00, 0x00,
  0x00, 0x00, 0x00, 0x06, 0x02, 0x00, 0x00, 0x00, 0xf8, 0x71, 0xff, 0xff,
  0x40, 0x00, 0x00, 0x00, 0x21, 0x00, 0x00, 0x00, 0x18, 0x00, 0x00, 0x00,
  0x40, 0x00, 0x00, 0x00, 0x04, 0x00, 0x00, 0x00, 0x02, 0x00, 0x00, 0x00,
  0xff, 0xff, 0xff, 0xff, 0x0a, 0x00, 0x00, 0x00, 0x19, 0x00, 0x00, 0x00,
  0x53, 0x74, 0x61, 0x74, 0x65, 0x66, 0x75, 0x6c, 0x50, 0x61, 0x72, 0x74,
  0x69, 0x74, 0x69, 0x6f, 0x6e, 0x65, 0x64, 0x43, 0x61, 0x6c, 0x6c, 0x3a,
  0x30, 0x00, 0x00, 0x00, 0x02, 0x00, 0x00, 0x00, 0x01, 0x00, 0x00, 0x00,
  0x0a, 0x00, 0x00, 0x00, 0xd0, 0x71, 0xff, 0xff, 0x2e, 0xf4, 0xff, 0xff,
  0x00, 0x00, 0x00, 0x09, 0x06, 0x00, 0x00, 0x00, 0x1c, 0x00, 0x00, 0x00,
  0x10, 0x00, 0x00, 0x00, 0x04, 0x00, 0x00, 0x00, 0xf2, 0x72, 0xff, 0xff,
  0x00, 0x00, 0x80, 0x3f, 0x01, 0x00, 0x00, 0x00, 0x1f, 0x00, 0x00, 0x00,
  0x01, 0x00, 0x00, 0x00, 0x1e, 0x00, 0x00, 0x00, 0xd4, 0xf2, 0xff, 0xff,
  0x19, 0x00, 0x00, 0x00, 0x00, 0x00, 0x00, 0x19, 0x02, 0x00, 0x00, 0x00,
  0xc8, 0xf2, 0xff, 0xff, 0x00, 0x00, 0x00, 0x09, 0x40, 0x00, 0x00, 0x00,
  0x20, 0x00, 0x00, 0x00, 0x18, 0x00, 0x00, 0x00, 0x40, 0x00, 0x00, 0x00,
  0x04, 0x00, 0x00, 0x00, 0x02, 0x00, 0x00, 0x00, 0xff, 0xff, 0xff, 0xff,
  0x0a, 0x00, 0x00, 0x00, 0x1a, 0x00, 0x00, 0x00, 0x53, 0x74, 0x61, 0x74,
  0x65, 0x66, 0x75, 0x6c, 0x50, 0x61, 0x72, 0x74, 0x69, 0x74, 0x69, 0x6f,
  0x6e, 0x65, 0x64, 0x43, 0x61, 0x6c, 0x6c, 0x3a, 0x30, 0x31, 0x00, 0x00,
  0x02, 0x00, 0x00, 0x00, 0x01, 0x00, 0x00, 0x00, 0x0a, 0x00, 0x00, 0x00,
  0x14, 0x75, 0xff, 0xff, 0x18, 0x00, 0x00, 0x00, 0x04, 0x00, 0x00, 0x00,
  0x01, 0x00, 0x00, 0x00, 0x80, 0xff, 0xff, 0xff, 0xff, 0xff, 0xff, 0xff,
  0x00, 0x00, 0x00, 0x00, 0x01, 0x00, 0x00, 0x00, 0x00, 0x00, 0x80, 0x3b,
  0xe6, 0xf4, 0xff, 0xff, 0x00, 0x00, 0x00, 0x08, 0x05, 0x00, 0x00, 0x00,
  0x18, 0x00, 0x00, 0x00, 0x0c, 0x00, 0x00, 0x00, 0x04, 0x00, 0x00, 0x00,
  0xa4, 0x72, 0xff, 0xff, 0x01, 0x00, 0x00, 0x00, 0x1e, 0x00, 0x00, 0x00,
  0x03, 0x00, 0x00, 0x00, 0x1d, 0x00, 0x00, 0x00, 0x10, 0x00, 0x00, 0x00,
  0x11, 0x00, 0x00, 0x00, 0x90, 0xf3, 0xff, 0xff, 0x09, 0x00, 0x00, 0x00,
  0x00, 0x00, 0x00, 0x09, 0x04, 0x00, 0x00, 0x00, 0x84, 0xf3, 0xff, 0xff,
  0x00, 0x00, 0x00, 0x09, 0x54, 0x00, 0x00, 0x00, 0x1f, 0x00, 0x00, 0x00,
  0x18, 0x00, 0x00, 0x00, 0x54, 0x00, 0x00, 0x00, 0x04, 0x00, 0x00, 0x00,
  0x02, 0x00, 0x00, 0x00, 0xff, 0xff, 0xff, 0xff, 0x0a, 0x00, 0x00, 0x00,
  0x2e, 0x00, 0x00, 0x00, 0x6d, 0x6f, 0x64, 0x65, 0x6c, 0x5f, 0x35, 0x2f,
  0x64, 0x65, 0x6e, 0x73, 0x65, 0x5f, 0x35, 0x2f, 0x4d, 0x61, 0x74, 0x4d,
  0x75, 0x6c, 0x3b, 0x6d, 0x6f, 0x64, 0x65, 0x6c, 0x5f, 0x35, 0x2f, 0x64,
  0x65, 0x6e, 0x73, 0x65, 0x5f, 0x35, 0x2f, 0x42, 0x69, 0x61, 0x73, 0x41,
  0x64, 0x64, 0x00, 0x00, 0x02, 0x00, 0x00, 0x00, 0x01, 0x00, 0x00, 0x00,
  0x0a, 0x00, 0x00, 0x00, 0xe4, 0x75, 0xff, 0xff, 0x14, 0x00, 0x00, 0x00,
  0x04, 0x00, 0x00, 0x00, 0x01, 0x00, 0x00, 0x00, 0x04, 0x00, 0x00, 0x00,
  0x00, 0x00, 0x00, 0x00, 0x01, 0x00, 0x00, 0x00, 0xa4, 0xf3, 0x60, 0x3e,
  0xb2, 0xf5, 0xff, 0xff, 0x00, 0x00, 0x00, 0x1b, 0x04, 0x00, 0x00, 0x00,
  0x18, 0x00, 0x00, 0x00, 0x0c, 0x00, 0x00, 0x00, 0x04, 0x00, 0x00, 0x00,
  0x70, 0x73, 0xff, 0xff, 0x01, 0x00, 0x00, 0x00, 0x1d, 0x00, 0x00, 0x00,
  0x02, 0x00, 0x00, 0x00, 0x1c, 0x00, 0x00, 0x00, 0x01, 0x00, 0x00, 0x00,
  0x58, 0xf4, 0xff, 0xff, 0x28, 0x00, 0x00, 0x00, 0x00, 0x00, 0x00, 0x28,
  0x02, 0x00, 0x00, 0x00, 0x4c, 0xf4, 0xff, 0xff, 0x00, 0x00, 0x00, 0x09,
  0x4c, 0x00, 0x00, 0x00, 0x1e, 0x00, 0x00, 0x00, 0x18, 0x00, 0x00, 0x00,
  0x4c, 0x00, 0x00, 0x00, 0x04, 0x00, 0x00, 0x00, 0x02, 0x00, 0x00, 0x00,
  0xff, 0xff, 0xff, 0xff, 0x80, 0x00, 0x00, 0x00, 0x27, 0x00, 0x00, 0x00,
  0x6d, 0x6f, 0x64, 0x65, 0x6c, 0x5f, 0x35, 0x2f, 0x67, 0x6c, 0x6f, 0x62,
  0x61, 0x6c, 0x5f, 0x61, 0x76, 0x65, 0x72, 0x61, 0x67, 0x65, 0x5f, 0x70,
  0x6f, 0x6f, 0x6c, 0x69, 0x6e, 0x67, 0x32, 0x64, 0x5f, 0x35, 0x2f, 0x4d,
  0x65, 0x61, 0x6e, 0x00, 0x02, 0x00, 0x00, 0x00, 0x01, 0x00, 0x00, 0x00,
  0x80, 0x00, 0x00, 0x00, 0xa4, 0x76, 0xff, 0xff, 0x18, 0x00, 0x00, 0x00,
  0x04, 0x00, 0x00, 0x00, 0x01, 0x00, 0x00, 0x00, 0x80, 0xff, 0xff, 0xff,
  0xff, 0xff, 0xff, 0xff, 0x00, 0x00, 0x00, 0x00, 0x01, 0x00, 0x00, 0x00,
  0x0f, 0x05, 0x6b, 0x3e, 0x76, 0xf6, 0xff, 0xff, 0x00, 0x00, 0x00, 0x01,
  0x01, 0x00, 0x00, 0x00, 0x24, 0x00, 0x00, 0x00, 0x18, 0x00, 0x00, 0x00,
  0x04, 0x00, 0x00, 0x00, 0x68, 0xf6, 0xff, 0xff, 0x01, 0x00, 0x00, 0x00,
  0x01, 0x00, 0x00, 0x00, 0x00, 0x00, 0x01, 0x01, 0x01, 0x00, 0x00, 0x00,
  0x1c, 0x00, 0x00, 0x00, 0x03, 0x00, 0x00, 0x00, 0x1b, 0x00, 0x00, 0x00,
  0x0e, 0x00, 0x00, 0x00, 0x0f, 0x00, 0x00, 0x00, 0x10, 0xf5, 0xff, 0xff,
  0x00, 0x00, 0x00, 0x09, 0xb8, 0x00, 0x00, 0x00, 0x1d, 0x00, 0x00, 0x00,
  0x20, 0x00, 0x00, 0x00, 0xc0, 0x00, 0x00, 0x00, 0x04, 0x00, 0x00, 0x00,
  0x04, 0x00, 0x00, 0x00, 0xff, 0xff, 0xff, 0xff, 0x04, 0x00, 0x00, 0x00,
  0x04, 0x00, 0x00, 0x00, 0x80, 0x00, 0x00, 0x00, 0x8a, 0x00, 0x00, 0x00,
  0x6d, 0x6f, 0x64, 0x65, 0x6c, 0x5f, 0x35, 0x2f, 0x73, 0x65, 0x70, 0x61,
  0x72, 0x61, 0x62, 0x6c, 0x65, 0x5f, 0x63, 0x6f, 0x6e, 0x76, 0x32, 0x64,
  0x5f, 0x31, 0x36, 0x2f, 0x52, 0x65, 0x6c, 0x75, 0x3b, 0x6d, 0x6f, 0x64,
  0x65, 0x6c, 0x5f, 0x35, 0x2f, 0x73, 0x65, 0x70, 0x61, 0x72, 0x61, 0x62,
  0x6c, 0x65, 0x5f, 0x63, 0x6f, 0x6e, 0x76, 0x32, 0x64, 0x5f, 0x31, 0x36,
  0x2f, 0x42, 0x69, 0x61, 0x73, 0x41, 0x64, 0x64, 0x3b, 0x6d, 0x6f, 0x64,
  0x65, 0x6c, 0x5f, 0x35, 0x2f, 0x73, 0x65, 0x70, 0x61, 0x72, 0x61, 0x62,
  0x6c, 0x65, 0x5f, 0x63, 0x6f, 0x6e, 0x76, 0x32, 0x64, 0x5f, 0x31, 0x36,
  0x2f, 0x73, 0x65, 0x70, 0x61, 0x72, 0x61, 0x62, 0x6c, 0x65, 0x5f, 0x63,
  0x6f, 0x6e, 0x76, 0x32, 0x64, 0x3b, 0x73, 0x65, 0x70, 0x61, 0x72, 0x61,
  0x62, 0x6c, 0x65, 0x5f, 0x63, 0x6f, 0x6e, 0x76, 0x32, 0x64, 0x5f, 0x31,
  0x36, 0x2f, 0x62, 0x69, 0x61, 0x73, 0x00, 0x00, 0x04, 0x00, 0x00, 0x00,
  0x01, 0x00, 0x00, 0x00, 0x04, 0x00, 0x00, 0x00, 0x04, 0x00, 0x00, 0x00,
  0x80, 0x00, 0x00, 0x00, 0xdc, 0x77, 0xff, 0xff, 0x18, 0x00, 0x00, 0x00,
  0x04, 0x00, 0x00, 0x00, 0x01, 0x00, 0x00, 0x00, 0x80, 0xff, 0xff, 0xff,
  0xff, 0xff, 0xff, 0xff, 0x00, 0x00, 0x00, 0x00, 0x01, 0x00, 0x00, 0x00,
  0xb7, 0x5b, 0xee, 0x3e, 0xae, 0xf7, 0xff, 0xff, 0x00, 0x00, 0x00, 0x02,
  0x03, 0x00, 0x00, 0x00, 0x28, 0x00, 0x00, 0x00, 0x1c, 0x00, 0x00, 0x00,
  0x04, 0x00, 0x00, 0x00, 0xb4, 0xf9, 0xff, 0xff, 0x01, 0x00, 0x00, 0x00,
  0x01, 0x00, 0x00, 0x00, 0x01, 0x00, 0x00, 0x00, 0x00, 0x00, 0x00, 0x01,
  0x01, 0x00, 0x00, 0x00, 0x1b, 0x00, 0x00, 0x00, 0x03, 0x00, 0x00, 0x00,
  0x1a, 0x00, 0x00, 0x00, 0x0d, 0x00, 0x00, 0x00, 0x0a, 0x00, 0x00, 0x00,
  0x4c, 0xf6, 0xff, 0xff, 0x00, 0x00, 0x00, 0x09, 0x64, 0x00, 0x00, 0x00,
  0x1c, 0x00, 0x00, 0x00, 0x20, 0x00, 0x00, 0x00, 0x6c, 0x00, 0x00, 0x00,
  0x04, 0x00, 0x00, 0x00, 0x04, 0x00, 0x00, 0x00, 0xff, 0xff, 0xff, 0xff,
  0x04, 0x00, 0x00, 0x00, 0x04, 0x00, 0x00, 0x00, 0x40, 0x00, 0x00, 0x00,
  0x37, 0x00, 0x00, 0x00, 0x6d, 0x6f, 0x64, 0x65, 0x6c, 0x5f, 0x35, 0x2f,
  0x73, 0x65, 0x70, 0x61, 0x72, 0x61, 0x62, 0x6c, 0x65, 0x5f, 0x63, 0x6f,
  0x6e, 0x76, 0x32, 0x64, 0x5f, 0x31, 0x36, 0x2f, 0x73, 0x65, 0x70, 0x61,
  0x72, 0x61, 0x62, 0x6c, 0x65, 0x5f, 0x63, 0x6f, 0x6e, 0x76, 0x32, 0x64,
  0x2f, 0x64, 0x65, 0x70, 0x74, 0x68, 0x77, 0x69, 0x73, 0x65, 0x32, 0x00,
  0x04, 0x00, 0x00, 0x00, 0x01, 0x00, 0x00, 0x00, 0x04, 0x00, 0x00, 0x00,
  0x04, 0x00, 0x00, 0x00, 0x40, 0x00, 0x00, 0x00, 0xc4, 0x78, 0xff, 0xff,
  0x18, 0x00, 0x00, 0x00, 0x04, 0x00, 0x00, 0x00, 0x01, 0x00, 0x00, 0x00,
  0xb4, 0xff, 0xff, 0xff, 0xff, 0xff, 0xff, 0xff, 0x00, 0x00, 0x00, 0x00,
  0x01, 0x00, 0x00, 0x00, 0x16, 0x24, 0x97, 0x3f, 0x96, 0xf8, 0xff, 0xff,
  0x00, 0x00, 0x00, 0x05, 0x02, 0x00, 0x00, 0x00, 0x2c, 0x00, 0x00, 0x00,
  0x20, 0x00, 0x00, 0x00, 0x04, 0x00, 0x00, 0x00, 0x86, 0xf9, 0xff, 0xff,
  0x02, 0x00, 0x00, 0x00, 0x02, 0x00, 0x00, 0x00, 0x02, 0x00, 0x00, 0x00,
  0x02, 0x00, 0x00, 0x00, 0x00, 0x00, 0x00, 0x01, 0x01, 0x00, 0x00, 0x00,
  0x1a, 0x00, 0x00, 0x00, 0x01, 0x00, 0x00, 0x00, 0x19, 0x00, 0x00, 0x00,
  0x30, 0xf7, 0xff, 0xff, 0x00, 0x00, 0x00, 0x09, 0x50, 0x00, 0x00, 0x00,
  0x1b, 0x00, 0x00, 0x00, 0x20, 0x00, 0x00, 0x00, 0x58, 0x00, 0x00, 0x00,
  0x04, 0x00, 0x00, 0x00, 0x04, 0x00, 0x00, 0x00, 0xff, 0xff, 0xff, 0xff,
  0x06, 0x00, 0x00, 0x00, 0x06, 0x00, 0x00, 0x00, 0x40, 0x00, 0x00, 0x00,
  0x20, 0x00, 0x00, 0x00, 0x6d, 0x6f, 0x64, 0x65, 0x6c, 0x5f, 0x35, 0x2f,
  0x6d, 0x61, 0x78, 0x5f, 0x70, 0x6f, 0x6f, 0x6c, 0x69, 0x6e, 0x67, 0x32,
  0x64, 0x5f, 0x31, 0x36, 0x2f, 0x4d, 0x61, 0x78, 0x50, 0x6f, 0x6f, 0x6c,
  0x00, 0x00, 0x00, 0x00, 0x04, 0x00, 0x00, 0x00, 0x01, 0x00, 0x00, 0x00,
  0x06, 0x00, 0x00, 0x00, 0x06, 0x00, 0x00, 0x00, 0x40, 0x00, 0x00, 0x00,
  0x94, 0x79, 0xff, 0xff, 0x18, 0x00, 0x00, 0x00, 0x04, 0x00, 0x00, 0x00,
  0x01, 0x00, 0x00, 0x00, 0x80, 0xff, 0xff, 0xff, 0xff, 0xff, 0xff, 0xff,
  0x00, 0x00, 0x00, 0x00, 0x01, 0x00, 0x00, 0x00, 0x10, 0x4a, 0xb7, 0x3e,
  0x66, 0xf9, 0xff, 0xff, 0x00, 0x00, 0x00, 0x01, 0x01, 0x00, 0x00, 0x00,
  0x24, 0x00, 0x00, 0x00, 0x18, 0x00, 0x00, 0x00, 0x04, 0x00, 0x00, 0x00,
  0x58, 0xf9, 0xff, 0xff, 0x01, 0x00, 0x00, 0x00, 0x01, 0x00, 0x00, 0x00,
  0x00, 0x00, 0x01, 0x01, 0x01, 0x00, 0x00, 0x00, 0x19, 0x00, 0x00, 0x00,
  0x03, 0x00, 0x00, 0x00, 0x18, 0x00, 0x00, 0x00, 0x0b, 0x00, 0x00, 0x00,
  0x0c, 0x00, 0x00, 0x00, 0x00, 0xf8, 0xff, 0xff, 0x00, 0x00, 0x00, 0x09,
  0xf0, 0x00, 0x00, 0x00, 0x1a, 0x00, 0x00, 0x00, 0x20, 0x00, 0x00, 0x00,
  0xf8, 0x00, 0x00, 0x00, 0x04, 0x00, 0x00, 0x00, 0x04, 0x00, 0x00, 0x00,
  0xff, 0xff, 0xff, 0xff, 0x0c, 0x00, 0x00, 0x00, 0x0c, 0x00, 0x00, 0x00,
  0x40, 0x00, 0x00, 0x00, 0xc1, 0x00, 0x00, 0x00, 0x6d, 0x6f, 0x64, 0x65,
  0x6c, 0x5f, 0x35, 0x2f, 0x73, 0x65, 0x70, 0x61, 0x72, 0x61, 0x62, 0x6c,
  0x65, 0x5f, 0x63, 0x6f, 0x6e, 0x76, 0x32, 0x64, 0x5f, 0x31, 0x35, 0x2f,
  0x52, 0x65, 0x6c, 0x75, 0x3b, 0x6d, 0x6f, 0x64, 0x65, 0x6c, 0x5f, 0x35,
  0x2f, 0x73, 0x65, 0x70, 0x61, 0x72, 0x61, 0x62, 0x6c, 0x65, 0x5f, 0x63,
  0x6f, 0x6e, 0x76, 0x32, 0x64, 0x5f, 0x31, 0x35, 0x2f, 0x42, 0x69, 0x61,
  0x73, 0x41, 0x64, 0x64, 0x3b, 0x6d, 0x6f, 0x64, 0x65, 0x6c, 0x5f, 0x35,
  0x2f, 0x73, 0x65, 0x70, 0x61, 0x72, 0x61, 0x62, 0x6c, 0x65, 0x5f, 0x63,
  0x6f, 0x6e, 0x76, 0x32, 0x64, 0x5f, 0x31, 0x36, 0x2f, 0x73, 0x65, 0x70,
  0x61, 0x72, 0x61, 0x62, 0x6c, 0x65, 0x5f, 0x63, 0x6f, 0x6e, 0x76, 0x32,
  0x64, 0x2f, 0x64, 0x65, 0x70, 0x74, 0x68, 0x77, 0x69, 0x73, 0x65, 0x3b,
  0x6d, 0x6f, 0x64, 0x65, 0x6c, 0x5f, 0x35, 0x2f, 0x73, 0x65, 0x70, 0x61,
  0x72, 0x61, 0x62, 0x6c, 0x65, 0x5f, 0x63, 0x6f, 0x6e, 0x76, 0x32, 0x64,
  0x5f, 0x31, 0x35, 0x2f, 0x73, 0x65, 0x70, 0x61, 0x72, 0x61, 0x62, 0x6c,
  0x65, 0x5f, 0x63, 0x6f, 0x6e, 0x76, 0x32, 0x64, 0x3b, 0x73, 0x65, 0x70,
  0x61, 0x72, 0x61, 0x62, 0x6c, 0x65, 0x5f, 0x63, 0x6f, 0x6e, 0x76, 0x32,
  0x64, 0x5f, 0x31, 0x35, 0x2f, 0x62, 0x69, 0x61, 0x73, 0x00, 0x00, 0x00,
  0x04, 0x00, 0x00, 0x00, 0x01, 0x00, 0x00, 0x00, 0x0c, 0x00, 0x00, 0x00,
  0x0c, 0x00, 0x00, 0x00, 0x40, 0x00, 0x00, 0x00, 0x04, 0x7b, 0xff, 0xff,
  0x18, 0x00, 0x00, 0x00, 0x04, 0x00, 0x00, 0x00, 0x01, 0x00, 0x00, 0x00,
  0x80, 0xff, 0xff, 0xff, 0xff, 0xff, 0xff, 0xff, 0x00, 0x00, 0x00, 0x00,
  0x01, 0x00, 0x00, 0x00, 0x10, 0x4a, 0xb7, 0x3e, 0xd6, 0xfa, 0xff, 0xff,
  0x00, 0x00, 0x00, 0x02, 0x03, 0x00, 0x00, 0x00, 0x28, 0x00, 0x00, 0x00,
  0x1c, 0x00, 0x00, 0x00, 0x04, 0x00, 0x00, 0x00, 0xdc, 0xfc, 0xff, 0xff,
  0x01, 0x00, 0x00, 0x00, 0x01, 0x00, 0x00, 0x00, 0x01, 0x00, 0x00, 0x00,
  0x00, 0x00, 0x00, 0x01, 0x01, 0x00, 0x00, 0x00, 0x18, 0x00, 0x00, 0x00,
  0x03, 0x00, 0x00, 0x00, 0x17, 0x00, 0x00, 0x00, 0x08, 0x00, 0x00, 0x00,
  0x09, 0x00, 0x00, 0x00, 0x74, 0xf9, 0xff, 0xff, 0x00, 0x00, 0x00, 0x09,
  0x64, 0x00, 0x00, 0x00, 0x19, 0x00, 0x00, 0x00, 0x20, 0x00, 0x00, 0x00,
  0x6c, 0x00, 0x00, 0x00, 0x04, 0x00, 0x00, 0x00, 0x04, 0x00, 0x00, 0x00,
  0xff, 0xff, 0xff, 0xff, 0x0c, 0x00, 0x00, 0x00, 0x0c, 0x00, 0x00, 0x00,
  0x40, 0x00, 0x00, 0x00, 0x37, 0x00, 0x00, 0x00, 0x6d, 0x6f, 0x64, 0x65,
  0x6c, 0x5f, 0x35, 0x2f, 0x73, 0x65, 0x70, 0x61, 0x72, 0x61, 0x62, 0x6c,
  0x65, 0x5f, 0x63, 0x6f, 0x6e, 0x76, 0x32, 0x64, 0x5f, 0x31, 0x35, 0x2f,
  0x73, 0x65, 0x70, 0x61, 0x72, 0x61, 0x62, 0x6c, 0x65, 0x5f, 0x63, 0x6f,
  0x6e, 0x76, 0x32, 0x64, 0x2f, 0x64, 0x65, 0x70, 0x74, 0x68, 0x77, 0x69,
  0x73, 0x65, 0x31, 0x00, 0x04, 0x00, 0x00, 0x00, 0x01, 0x00, 0x00, 0x00,
  0x0c, 0x00, 0x00, 0x00, 0x0c, 0x00, 0x00, 0x00, 0x40, 0x00, 0x00, 0x00,
  0xec, 0x7b, 0xff, 0xff, 0x18, 0x00, 0x00, 0x00, 0x04, 0x00, 0x00, 0x00,
  0x01, 0x00, 0x00, 0x00, 0xda, 0xff, 0xff, 0xff, 0xff, 0xff, 0xff, 0xff,
  0x00, 0x00, 0x00, 0x00, 0x01, 0x00, 0x00, 0x00, 0x6c, 0x20, 0x8b, 0x3e,
  0xbe, 0xfb, 0xff, 0xff, 0x00, 0x00, 0x00, 0x05, 0x02, 0x00, 0x00, 0x00,
  0x2c, 0x00, 0x00, 0x00, 0x20, 0x00, 0x00, 0x00, 0x04, 0x00, 0x00, 0x00,
  0xae, 0xfc, 0xff, 0xff, 0x02, 0x00, 0x00, 0x00, 0x02, 0x00, 0x00, 0x00,
  0x02, 0x00, 0x00, 0x00, 0x02, 0x00, 0x00, 0x00, 0x00, 0x00, 0x00, 0x01,
  0x01, 0x00, 0x00, 0x00, 0x17, 0x00, 0x00, 0x00, 0x01, 0x00, 0x00, 0x00,
  0x16, 0x00, 0x00, 0x00, 0x58, 0xfa, 0xff, 0xff, 0x00, 0x00, 0x00, 0x09,
  0x50, 0x00, 0x00, 0x00, 0x18, 0x00, 0x00, 0x00, 0x20, 0x00, 0x00, 0x00,
  0x58, 0x00, 0x00, 0x00, 0x04, 0x00, 0x00, 0x00, 0x04, 0x00, 0x00, 0x00,
  0xff, 0xff, 0xff, 0xff, 0x0e, 0x00, 0x00, 0x00, 0x0e, 0x00, 0x00, 0x00,
  0x40, 0x00, 0x00, 0x00, 0x20, 0x00, 0x00, 0x00, 0x6d, 0x6f, 0x64, 0x65,
  0x6c, 0x5f, 0x35, 0x2f, 0x6d, 0x61, 0x78, 0x5f, 0x70, 0x6f, 0x6f, 0x6c,
  0x69, 0x6e, 0x67, 0x32, 0x64, 0x5f, 0x31, 0x35, 0x2f, 0x4d, 0x61, 0x78,
  0x50, 0x6f, 0x6f, 0x6c, 0x00, 0x00, 0x00, 0x00, 0x04, 0x00, 0x00, 0x00,
  0x01, 0x00, 0x00, 0x00, 0x0e, 0x00, 0x00, 0x00, 0x0e, 0x00, 0x00, 0x00,
  0x40, 0x00, 0x00, 0x00, 0xbc, 0x7c, 0xff, 0xff, 0x18, 0x00, 0x00, 0x00,
  0x04, 0x00, 0x00, 0x00, 0x01, 0x00, 0x00, 0x00, 0x80, 0xff, 0xff, 0xff,
  0xff, 0xff, 0xff, 0xff, 0x00, 0x00, 0x00, 0x00, 0x01, 0x00, 0x00, 0x00,
  0xa1, 0x13, 0x80, 0x3d, 0x8e, 0xfc, 0xff, 0xff, 0x00, 0x00, 0x00, 0x01,
  0x01, 0x00, 0x00, 0x00, 0x24, 0x00, 0x00, 0x00, 0x18, 0x00, 0x00, 0x00,
  0x04, 0x00, 0x00, 0x00, 0x80, 0xfc, 0xff, 0xff, 0x01, 0x00, 0x00, 0x00,
  0x01, 0x00, 0x00, 0x00, 0x00, 0x00, 0x01, 0x01, 0x01, 0x00, 0x00, 0x00,
  0x16, 0x00, 0x00, 0x00, 0x03, 0x00, 0x00, 0x00, 0x15, 0x00, 0x00, 0x00,
  0x06, 0x00, 0x00, 0x00, 0x07, 0x00, 0x00, 0x00, 0x28, 0xfb, 0xff, 0xff,
  0x00, 0x00, 0x00, 0x09, 0xf0, 0x00, 0x00, 0x00, 0x17, 0x00, 0x00, 0x00,
  0x20, 0x00, 0x00, 0x00, 0xf8, 0x00, 0x00, 0x00, 0x04, 0x00, 0x00, 0x00,
  0x04, 0x00, 0x00, 0x00, 0xff, 0xff, 0xff, 0xff, 0x1d, 0x00, 0x00, 0x00,
  0x1d, 0x00, 0x00, 0x00, 0x40, 0x00, 0x00, 0x00, 0xc1, 0x00, 0x00, 0x00,
  0x6d, 0x6f, 0x64, 0x65, 0x6c, 0x5f, 0x35, 0x2f, 0x73, 0x65, 0x70, 0x61,
  0x72, 0x61, 0x62, 0x6c, 0x65, 0x5f, 0x63, 0x6f, 0x6e, 0x76, 0x32, 0x64,
  0x5f, 0x31, 0x34, 0x2f, 0x52, 0x65, 0x6c, 0x75, 0x3b, 0x6d, 0x6f, 0x64,
  0x65, 0x6c, 0x5f, 0x35, 0x2f, 0x73, 0x65, 0x70, 0x61, 0x72, 0x61, 0x62,
  0x6c, 0x65, 0x5f, 0x63, 0x6f, 0x6e, 0x76, 0x32, 0x64, 0x5f, 0x31, 0x34,
  0x2f, 0x42, 0x69, 0x61, 0x73, 0x41, 0x64, 0x64, 0x3b, 0x6d, 0x6f, 0x64,
  0x65, 0x6c, 0x5f, 0x35, 0x2f, 0x73, 0x65, 0x70, 0x61, 0x72, 0x61, 0x62,
  0x6c, 0x65, 0x5f, 0x63, 0x6f, 0x6e, 0x76, 0x32, 0x64, 0x5f, 0x31, 0x36,
  0x2f, 0x73, 0x65, 0x70, 0x61, 0x72, 0x61, 0x62, 0x6c, 0x65, 0x5f, 0x63,
  0x6f, 0x6e, 0x76, 0x32, 0x64, 0x2f, 0x64, 0x65, 0x70, 0x74, 0x68, 0x77,
  0x69, 0x73, 0x65, 0x3b, 0x6d, 0x6f, 0x64, 0x65, 0x6c, 0x5f, 0x35, 0x2f,
  0x73, 0x65, 0x70, 0x61, 0x72, 0x61, 0x62, 0x6c, 0x65, 0x5f, 0x63, 0x6f,
  0x6e, 0x76, 0x32, 0x64, 0x5f, 0x31, 0x34, 0x2f, 0x73, 0x65, 0x70, 0x61,
  0x72, 0x61, 0x62, 0x6c, 0x65, 0x5f, 0x63, 0x6f, 0x6e, 0x76, 0x32, 0x64,
  0x3b, 0x73, 0x65, 0x70, 0x61, 0x72, 0x61, 0x62, 0x6c, 0x65, 0x5f, 0x63,
  0x6f, 0x6e, 0x76, 0x32, 0x64, 0x5f, 0x31, 0x34, 0x2f, 0x62, 0x69, 0x61,
  0x73, 0x00, 0x00, 0x00, 0x04, 0x00, 0x00, 0x00, 0x01, 0x00, 0x00, 0x00,
  0x1d, 0x00, 0x00, 0x00, 0x1d, 0x00, 0x00, 0x00, 0x40, 0x00, 0x00, 0x00,
  0x2c, 0x7e, 0xff, 0xff, 0x14, 0x00, 0x00, 0x00, 0x04, 0x00, 0x00, 0x00,
  0x01, 0x00, 0x00, 0x00, 0x80, 0xff, 0xff, 0xff, 0xff, 0xff, 0xff, 0xff,
  0x01, 0x00, 0x00, 0x00, 0xa1, 0x13, 0x80, 0x3d, 0xfa, 0xfd, 0xff, 0xff,
  0x00, 0x00, 0x00, 0x02, 0x03, 0x00, 0x00, 0x00, 0x34, 0x00, 0x00, 0x00,
  0x28, 0x00, 0x00, 0x00, 0x10, 0x00, 0x00, 0x00, 0x0c, 0x00, 0x14, 0x00,
  0x13, 0x00, 0x08, 0x00, 0x0c, 0x00, 0x04, 0x00, 0x0c, 0x00, 0x00, 0x00,
  0x01, 0x00, 0x00, 0x00, 0x01, 0x00, 0x00, 0x00, 0x01, 0x00, 0x00, 0x00,
  0x00, 0x00, 0x00, 0x01, 0x01, 0x00, 0x00, 0x00, 0x15, 0x00, 0x00, 0x00,
  0x03, 0x00, 0x00, 0x00, 0x14, 0x00, 0x00, 0x00, 0x04, 0x00, 0x00, 0x00,
  0x05, 0x00, 0x00, 0x00, 0xc0, 0xfc, 0xff, 0xff, 0x04, 0x00, 0x00, 0x00,
  0x00, 0x00, 0x00, 0x04, 0x03, 0x00, 0x00, 0x00, 0xb4, 0xfc, 0xff, 0xff,
  0x00, 0x00, 0x00, 0x09, 0x64, 0x00, 0x00, 0x00, 0x16, 0x00, 0x00, 0x00,
  0x20, 0x00, 0x00, 0x00, 0x6c, 0x00, 0x00, 0x00, 0x04, 0x00, 0x00, 0x00,
  0x04, 0x00, 0x00, 0x00, 0xff, 0xff, 0xff, 0xff, 0x1d, 0x00, 0x00, 0x00,
  0x1d, 0x00, 0x00, 0x00, 0x20, 0x00, 0x00, 0x00, 0x37, 0x00, 0x00, 0x00,
  0x6d, 0x6f, 0x64, 0x65, 0x6c, 0x5f, 0x35, 0x2f, 0x73, 0x65, 0x70, 0x61,
  0x72, 0x61, 0x62, 0x6c, 0x65, 0x5f, 0x63, 0x6f, 0x6e, 0x76, 0x32, 0x64,
  0x5f, 0x31, 0x34, 0x2f, 0x73, 0x65, 0x70, 0x61, 0x72, 0x61, 0x62, 0x6c,
  0x65, 0x5f, 0x63, 0x6f, 0x6e, 0x76, 0x32, 0x64, 0x2f, 0x64, 0x65, 0x70,
  0x74, 0x68, 0x77, 0x69, 0x73, 0x65, 0x32, 0x00, 0x04, 0x00, 0x00, 0x00,
  0x01, 0x00, 0x00, 0x00, 0x1d, 0x00, 0x00, 0x00, 0x1d, 0x00, 0x00, 0x00,
  0x20, 0x00, 0x00, 0x00, 0x2c, 0x7f, 0xff, 0xff, 0x18, 0x00, 0x00, 0x00,
  0x04, 0x00, 0x00, 0x00, 0x01, 0x00, 0x00, 0x00, 0xfa, 0xff, 0xff, 0xff,
  0xff, 0xff, 0xff, 0xff, 0x00, 0x00, 0x00, 0x00, 0x01, 0x00, 0x00, 0x00,
  0xbf, 0x26, 0x87, 0x3d, 0x00, 0x00, 0x0e, 0x00, 0x1a, 0x00, 0x08, 0x00,
  0x0c, 0x00, 0x10, 0x00, 0x07, 0x00, 0x14, 0x00, 0x0e, 0x00, 0x00, 0x00,
  0x00, 0x00, 0x00, 0x05, 0x02, 0x00, 0x00, 0x00, 0x3c, 0x00, 0x00, 0x00,
  0x30, 0x00, 0x00, 0x00, 0x14, 0x00, 0x00, 0x00, 0x00, 0x00, 0x0e, 0x00,
  0x18, 0x00, 0x17, 0x00, 0x10, 0x00, 0x0c, 0x00, 0x08, 0x00, 0x04, 0x00,
  0x0e, 0x00, 0x00, 0x00, 0x02, 0x00, 0x00, 0x00, 0x02, 0x00, 0x00, 0x00,
  0x02, 0x00, 0x00, 0x00, 0x02, 0x00, 0x00, 0x00, 0x00, 0x00, 0x00, 0x01,
  0x01, 0x00, 0x00, 0x00, 0x14, 0x00, 0x00, 0x00, 0x01, 0x00, 0x00, 0x00,
  0x13, 0x00, 0x00, 0x00, 0xd4, 0xfd, 0xff, 0xff, 0x11, 0x00, 0x00, 0x00,
  0x00, 0x00, 0x00, 0x11, 0x02, 0x00, 0x00, 0x00, 0xc8, 0xfd, 0xff, 0xff,
  0x00, 0x00, 0x00, 0x09, 0x50, 0x00, 0x00, 0x00, 0x15, 0x00, 0x00, 0x00,
  0x20, 0x00, 0x00, 0x00, 0x58, 0x00, 0x00, 0x00, 0x04, 0x00, 0x00, 0x00,
  0x04, 0x00, 0x00, 0x00, 0xff, 0xff, 0xff, 0xff, 0x1f, 0x00, 0x00, 0x00,
  0x1f, 0x00, 0x00, 0x00, 0x20, 0x00, 0x00, 0x00, 0x20, 0x00, 0x00, 0x00,
  0x6d, 0x6f, 0x64, 0x65, 0x6c, 0x5f, 0x35, 0x2f, 0x6d, 0x61, 0x78, 0x5f,
  0x70, 0x6f, 0x6f, 0x6c, 0x69, 0x6e, 0x67, 0x32, 0x64, 0x5f, 0x31, 0x34,
  0x2f, 0x4d, 0x61, 0x78, 0x50, 0x6f, 0x6f, 0x6c, 0x00, 0x00, 0x00, 0x00,
  0x04, 0x00, 0x00, 0x00, 0x01, 0x00, 0x00, 0x00, 0x1f, 0x00, 0x00, 0x00,
  0x1f, 0x00, 0x00, 0x00, 0x20, 0x00, 0x00, 0x00, 0x2c, 0x80, 0xff, 0xff,
  0x18, 0x00, 0x00, 0x00, 0x04, 0x00, 0x00, 0x00, 0x01, 0x00, 0x00, 0x00,
  0x80, 0xff, 0xff, 0xff, 0xff, 0xff, 0xff, 0xff, 0x00, 0x00, 0x00, 0x00,
  0x01, 0x00, 0x00, 0x00, 0x23, 0x20, 0xd1, 0x3c, 0x00, 0x00, 0x0e, 0x00,
  0x18, 0x00, 0x08, 0x00, 0x0c, 0x00, 0x10, 0x00, 0x07, 0x00, 0x14, 0x00,
  0x0e, 0x00, 0x00, 0x00, 0x00, 0x00, 0x00, 0x01, 0x01, 0x00, 0x00, 0x00,
  0x30, 0x00, 0x00, 0x00, 0x24, 0x00, 0x00, 0x00, 0x10, 0x00, 0x00, 0x00,
  0x0c, 0x00, 0x10, 0x00, 0x0e, 0x00, 0x04, 0x00, 0x08, 0x00, 0x0f, 0x00,
  0x0c, 0x00, 0x00, 0x00, 0x01, 0x00, 0x00, 0x00, 0x01, 0x00, 0x00, 0x00,
  0x00, 0x00, 0x01, 0x01, 0x01, 0x00, 0x00, 0x00, 0x13, 0x00, 0x00, 0x00,
  0x03, 0x00, 0x00, 0x00, 0x12, 0x00, 0x00, 0x00, 0x02, 0x00, 0x00, 0x00,
  0x03, 0x00, 0x00, 0x00, 0xd0, 0xfe, 0xff, 0xff, 0x03, 0x00, 0x00, 0x00,
  0x00, 0x00, 0x00, 0x03, 0x03, 0x00, 0x00, 0x00, 0xc4, 0xfe, 0xff, 0xff,
  0x00, 0x00, 0x00, 0x09, 0xbc, 0x00, 0x00, 0x00, 0x14, 0x00, 0x00, 0x00,
  0x20, 0x00, 0x00, 0x00, 0xc4, 0x00, 0x00, 0x00, 0x04, 0x00, 0x00, 0x00,
  0x04, 0x00, 0x00, 0x00, 0xff, 0xff, 0xff, 0xff, 0x3e, 0x00, 0x00, 0x00,
  0x3e, 0x00, 0x00, 0x00, 0x20, 0x00, 0x00, 0x00, 0x8c, 0x00, 0x00, 0x00,
  0x6d, 0x6f, 0x64, 0x65, 0x6c, 0x5f, 0x35, 0x2f, 0x63, 0x6f, 0x6e, 0x76,
  0x32, 0x64, 0x5f, 0x35, 0x2f, 0x52, 0x65, 0x6c, 0x75, 0x3b, 0x6d, 0x6f,
  0x64, 0x65, 0x6c, 0x5f, 0x35, 0x2f, 0x63, 0x6f, 0x6e, 0x76, 0x32, 0x64,
  0x5f, 0x35, 0x2f, 0x42, 0x69, 0x61, 0x73, 0x41, 0x64, 0x64, 0x3b, 0x6d,
  0x6f, 0x64, 0x65, 0x6c, 0x5f, 0x35, 0x2f, 0x73, 0x65, 0x70, 0x61, 0x72,
  0x61, 0x62, 0x6c, 0x65, 0x5f, 0x63, 0x6f, 0x6e, 0x76, 0x32, 0x64, 0x5f,
  0x31, 0x34, 0x2f, 0x73, 0x65, 0x70, 0x61, 0x72, 0x61, 0x62, 0x6c, 0x65,
  0x5f, 0x63, 0x6f, 0x6e, 0x76, 0x32, 0x64, 0x2f, 0x64, 0x65, 0x70, 0x74,
  0x68, 0x77, 0x69, 0x73, 0x65, 0x3b, 0x6d, 0x6f, 0x64, 0x65, 0x6c, 0x5f,
  0x35, 0x2f, 0x63, 0x6f, 0x6e, 0x76, 0x32, 0x64, 0x5f, 0x35, 0x2f, 0x43,
  0x6f, 0x6e, 0x76, 0x32, 0x44, 0x3b, 0x63, 0x6f, 0x6e, 0x76, 0x32, 0x64,
  0x5f, 0x35, 0x2f, 0x62, 0x69, 0x61, 0x73, 0x31, 0x00, 0x00, 0x00, 0x00,
  0x04, 0x00, 0x00, 0x00, 0x01, 0x00, 0x00, 0x00, 0x3e, 0x00, 0x00, 0x00,
  0x3e, 0x00, 0x00, 0x00, 0x20, 0x00, 0x00, 0x00, 0x94, 0x81, 0xff, 0xff,
  0x14, 0x00, 0x00, 0x00, 0x04, 0x00, 0x00, 0x00, 0x01, 0x00, 0x00, 0x00,
  0x80, 0xff, 0xff, 0xff, 0xff, 0xff, 0xff, 0xff, 0x01, 0x00, 0x00, 0x00,
  0x23, 0x20, 0xd1, 0x3c, 0x00, 0x00, 0x0a, 0x00, 0x0c, 0x00, 0x00, 0x00,
  0x04, 0x00, 0x08, 0x00, 0x0a, 0x00, 0x00, 0x00, 0x10, 0x00, 0x00, 0x00,
  0x04, 0x00, 0x00, 0x00, 0x01, 0x00, 0x00, 0x00, 0x12, 0x00, 0x00, 0x00,
  0x01, 0x00, 0x00, 0x00, 0x00, 0x00, 0x00, 0x00, 0x0c, 0x00, 0x10, 0x00,
  0x0b, 0x00, 0x00, 0x00, 0x0c, 0x00, 0x04, 0x00, 0x0c, 0x00, 0x00, 0x00,
  0x72, 0x00, 0x00, 0x00, 0x00, 0x00, 0x00, 0x72, 0x01, 0x00, 0x00, 0x00,
  0x14, 0x00, 0x1c, 0x00, 0x08, 0x00, 0x07, 0x00, 0x0c, 0x00, 0x10, 0x00,
  0x14, 0x00, 0x00, 0x00, 0x00, 0x00, 0x18, 0x00, 0x14, 0x00, 0x00, 0x00,
  0x00, 0x00, 0x00, 0x09, 0x3c, 0x00, 0x00, 0x00, 0x13, 0x00, 0x00, 0x00,
  0x20, 0x00, 0x00, 0x00, 0x44, 0x00, 0x00, 0x00, 0x04, 0x00, 0x00, 0x00,
  0x04, 0x00, 0x00, 0x00, 0xff, 0xff, 0xff, 0xff, 0x40, 0x00, 0x00, 0x00,
  0x40, 0x00, 0x00, 0x00, 0x03, 0x00, 0x00, 0x00, 0x0c, 0x00, 0x00, 0x00,
  0x74, 0x66, 0x6c, 0x2e, 0x71, 0x75, 0x61, 0x6e, 0x74, 0x69, 0x7a, 0x65,
  0x00, 0x00, 0x00, 0x00, 0x04, 0x00, 0x00, 0x00, 0x01, 0x00, 0x00, 0x00,
  0x40, 0x00, 0x00, 0x00, 0x40, 0x00, 0x00, 0x00, 0x03, 0x00, 0x00, 0x00,
  0x64, 0x82, 0xff, 0xff, 0x14, 0x00, 0x00, 0x00, 0x04, 0x00, 0x00, 0x00,
  0x01, 0x00, 0x00, 0x00, 0x80, 0xff, 0xff, 0xff, 0xff, 0xff, 0xff, 0xff,
  0x01, 0x00, 0x00, 0x00, 0x00, 0x00, 0x80, 0x3f, 0xde, 0x80, 0xff, 0xff,
  0x04, 0x00, 0x00, 0x00, 0x28, 0x00, 0x00, 0x00, 0xcd, 0xfa, 0xff, 0xff,
  0x80, 0xf7, 0xff, 0xff, 0x39, 0x07, 0x00, 0x00, 0xe8, 0x04, 0x00, 0x00,
  0x15, 0xf0, 0xff, 0xff, 0x33, 0x07, 0x00, 0x00, 0x51, 0x07, 0x00, 0x00,
  0xd9, 0xf8, 0xff, 0xff, 0x11, 0x02, 0x00, 0x00, 0x27, 0xee, 0xff, 0xff,
  0xf6, 0x80, 0xff, 0xff, 0x00, 0x00, 0x00, 0x02, 0x24, 0x00, 0x00, 0x00,
  0x12, 0x00, 0x00, 0x00, 0x08, 0x00, 0x00, 0x00, 0x20, 0x00, 0x00, 0x00,
  0x0c, 0x00, 0x00, 0x00, 0x64, 0x65, 0x6e, 0x73, 0x65, 0x5f, 0x35, 0x2f,
  0x62, 0x69, 0x61, 0x73, 0x00, 0x00, 0x00, 0x00, 0x01, 0x00, 0x00, 0x00,
  0x0a, 0x00, 0x00, 0x00, 0xec, 0x82, 0xff, 0xff, 0x18, 0x00, 0x00, 0x00,
  0x04, 0x00, 0x00, 0x00, 0x01, 0x00, 0x00, 0x00, 0x00, 0x00, 0x00, 0x00,
  0x00, 0x00, 0x00, 0x00, 0x00, 0x00, 0x00, 0x00, 0x01, 0x00, 0x00, 0x00,
  0x83, 0x03, 0xaf, 0x39, 0x6a, 0x81, 0xff, 0xff, 0x04, 0x00, 0x00, 0x00,
  0x00, 0x05, 0x00, 0x00, 0xf0, 0xff, 0x22, 0xdd, 0xd2, 0xda, 0xe7, 0x0b,
  0x37, 0x36, 0xfc, 0xeb, 0xcf, 0xf8, 0xcb, 0xff, 0x22, 0xf4, 0xf5, 0xff,
  0x3d, 0xd5, 0xfd, 0xf0, 0xc4, 0xaf, 0xe2, 0x3c, 0xee, 0xeb, 0xb7, 0x1d,
  0xed, 0xf9, 0xf0, 0xe9, 0x03, 0x0c, 0x12, 0x06, 0x00, 0xfa, 0xcb, 0xc4,
  0xf5, 0x09, 0xc9, 0x14, 0xcf, 0xc1, 0x09, 0xf1, 0x4c, 0xeb, 0x11, 0xfe,
  0x01, 0x23, 0x1f, 0xd5, 0xe6, 0xec, 0xff, 0xf5, 0xf1, 0xff, 0xcf, 0x2c,
  0x00, 0xda, 0x2d, 0xd0, 0x22, 0xda, 0x1e, 0xde, 0xe0, 0xe0, 0x37, 0x99,
  0x0a, 0x07, 0xfc, 0xd5, 0x0d, 0x23, 0x07, 0x15, 0xda, 0xe1, 0xde, 0x1c,
  0xee, 0x40, 0x22, 0xf7, 0xfc, 0xdf, 0xeb, 0x05, 0xff, 0xe8, 0xda, 0x03,
  0xc4, 0xdb, 0xd6, 0x22, 0xdd, 0xe5, 0xff, 0x23, 0xbc, 0xd7, 0x2c, 0xdd,
  0x11, 0xe2, 0xf9, 0xe3, 0xee, 0xfc, 0xb3, 0xe0, 0x22, 0xf7, 0xed, 0xd7,
  0xb9, 0x01, 0x0c, 0xfe, 0xde, 0xfd, 0x18, 0xea, 0xf8, 0xcf, 0xf7, 0xfc,
  0xff, 0xf2, 0x13, 0xff, 0x0b, 0xf6, 0x11, 0xff, 0xed, 0xe4, 0xf8, 0xf8,
  0xe9, 0xe4, 0xfb, 0xf8, 0xe9, 0xf7, 0x06, 0xf3, 0xf6, 0x19, 0x40, 0xe4,
  0xf5, 0xdb, 0xf4, 0xfc, 0x01, 0xf7, 0x00, 0xe9, 0xf4, 0xff, 0xe9, 0xf4,
  0x07, 0xf3, 0xf0, 0x27, 0xf6, 0xed, 0xdb, 0x50, 0x01, 0xe6, 0xdb, 0xee,
  0xfa, 0xfa, 0xff, 0x24, 0xfb, 0x01, 0xf0, 0xf7, 0xfc, 0xdc, 0xf7, 0x07,
  0xfa, 0xde, 0xe7, 0x48, 0xe7, 0xfe, 0xfd, 0xeb, 0x03, 0xe5, 0xf0, 0x17,
  0xcc, 0xf0, 0xf8, 0xe7, 0xf0, 0xfe, 0xdd, 0xef, 0xf1, 0xee, 0xf4, 0xf2,
  0xec, 0xe6, 0xfa, 0xe6, 0x01, 0xe4, 0x29, 0xef, 0x09, 0x02, 0xe9, 0xe4,
  0xe9, 0xe7, 0xff, 0xbc, 0xf1, 0x00, 0xfc, 0xf2, 0x0d, 0x2f, 0xe6, 0xde,
  0x53, 0xe6, 0xfc, 0xdc, 0xff, 0xf3, 0xdf, 0xe8, 0xc0, 0xff, 0xe9, 0x23,
  0x39, 0xfc, 0xd4, 0x81, 0x05, 0xa6, 0xe8, 0xd3, 0xff, 0x01, 0x36, 0x01,
  0xc8, 0x49, 0xdc, 0xff, 0xc7, 0x24, 0xe5, 0x38, 0x49, 0xf4, 0xfd, 0xfd,
  0x0e, 0xee, 0x10, 0xd4, 0x07, 0x39, 0xcd, 0xee, 0xd7, 0x0a, 0xf2, 0x09,
  0x00, 0x08, 0xea, 0x04, 0x2a, 0x0e, 0xa4, 0x03, 0xf7, 0x01, 0x2a, 0xea,
  0xd4, 0xf0, 0x06, 0xd9, 0x01, 0x16, 0xfc, 0x0a, 0xf4, 0x02, 0xff, 0xda,
  0xd9, 0xff, 0xc2, 0x05, 0xf2, 0xf1, 0xe7, 0xee, 0xc1, 0xea, 0xda, 0xdf,
  0xe7, 0xdd, 0xf1, 0xd0, 0x0a, 0xf8, 0xf7, 0xe7, 0xeb, 0x1b, 0xf1, 0x3b,
  0x07, 0x05, 0xc6, 0xef, 0xe8, 0xcd, 0xaf, 0x21, 0x2d, 0x16, 0xfd, 0x2f,
  0xff, 0x11, 0x0a, 0x0b, 0xcb, 0xf3, 0xd8, 0xe1, 0x35, 0xf6, 0x01, 0xb6,
  0xe4, 0xcb, 0x04, 0x02, 0x1b, 0xea, 0x16, 0xdd, 0xda, 0xb5, 0x0f, 0x2e,
  0xee, 0xfc, 0x2b, 0x37, 0x24, 0xff, 0xf4, 0xbe, 0xf5, 0xc1, 0xfa, 0x34,
  0xd0, 0x37, 0xed, 0xdb, 0xc2, 0xfe, 0xd7, 0xff, 0xf2, 0xf1, 0xe4, 0x01,
  0xd8, 0xd0, 0x15, 0xc3, 0xd8, 0x3e, 0x02, 0x04, 0xf2, 0x21, 0x13, 0x38,
  0xdb, 0xf3, 0xfb, 0xdb, 0x2d, 0xcc, 0x28, 0xd6, 0xff, 0xcf, 0xeb, 0x13,
  0xdf, 0xad, 0xfe, 0xa0, 0xfa, 0x0f, 0xee, 0xc9, 0xea, 0x00, 0xb5, 0xfc,
  0xff, 0x22, 0xd7, 0xca, 0xe6, 0x03, 0xff, 0xf1, 0x22, 0xff, 0x40, 0xde,
  0xe3, 0xe8, 0x45, 0xf9, 0x02, 0xdc, 0xe1, 0xfa, 0x52, 0x06, 0xe5, 0xfe,
  0xd4, 0xe1, 0x21, 0xb4, 0x1a, 0xb0, 0xc7, 0xec, 0xf8, 0xda, 0x0e, 0xe2,
  0xb9, 0xe6, 0xeb, 0xe5, 0xf5, 0x23, 0xd8, 0xd5, 0xff, 0x30, 0x0a, 0xd9,
  0xdd, 0xe3, 0x19, 0xe8, 0x14, 0x10, 0x01, 0x29, 0xc9, 0xde, 0xc2, 0xfc,
  0xe6, 0xf7, 0xc8, 0xaa, 0xf7, 0xe1, 0xb5, 0x1f, 0xf6, 0xf7, 0xc1, 0xdb,
  0xda, 0x01, 0xf4, 0xea, 0xea, 0xf5, 0xfe, 0xc9, 0xf9, 0xe9, 0xc7, 0xed,
  0xf6, 0x00, 0xf8, 0x01, 0xf3, 0xf8, 0xde, 0xff, 0xec, 0x26, 0x35, 0xe3,
  0x00, 0x2e, 0xfe, 0xfe, 0xf0, 0x09, 0xde, 0xeb, 0x24, 0x00, 0xfd, 0xf1,
  0xf7, 0xf9, 0xee, 0xfc, 0xff, 0xcd, 0xe9, 0x26, 0x05, 0xe7, 0xf3, 0xe9,
  0x00, 0x19, 0xf2, 0xed, 0xf6, 0x00, 0xee, 0xff, 0xff, 0x14, 0xcc, 0xd4,
  0xf8, 0xfd, 0xff, 0xfc, 0x1d, 0x01, 0xfa, 0xf3, 0xce, 0xe9, 0xf3, 0xfc,
  0x10, 0x1c, 0xf3, 0xfd, 0xd9, 0x0a, 0xf5, 0x0b, 0xfa, 0xd1, 0x20, 0xd7,
  0xcd, 0xd4, 0x2c, 0xde, 0x05, 0xf4, 0xbc, 0xf3, 0x3e, 0xfb, 0xed, 0xe4,
  0xf7, 0xd4, 0x37, 0x2f, 0xff, 0xe9, 0xf3, 0xea, 0xde, 0xfb, 0x2d, 0xf8,
  0xdd, 0xc9, 0xff, 0xbd, 0xe7, 0x1f, 0xee, 0x00, 0xf8, 0xf8, 0xde, 0x1b,
  0xfb, 0xec, 0xee, 0x02, 0xfd, 0x04, 0xe4, 0xe7, 0x1a, 0xff, 0xdf, 0x28,
  0xc2, 0xf3, 0xd5, 0xff, 0xe9, 0xf3, 0xec, 0xd0, 0xf9, 0xfd, 0x00, 0x01,
  0xd3, 0xf2, 0xd6, 0xff, 0xd4, 0xe5, 0xde, 0xcd, 0xe2, 0xd2, 0xfc, 0xf2,
  0xd7, 0xea, 0xfe, 0xec, 0xf4, 0xd2, 0xf0, 0xfa, 0x04, 0xfe, 0xf3, 0xee,
  0x01, 0xe8, 0xf1, 0xea, 0xe0, 0x0b, 0x29, 0xc8, 0xf8, 0xbd, 0xe5, 0xcc,
  0xf7, 0xf2, 0x1d, 0xe3, 0x01, 0x9c, 0x09, 0xc8, 0xf4, 0xf6, 0xff, 0xd9,
  0xf8, 0xff, 0xdb, 0xed, 0xf0, 0x14, 0xd4, 0x06, 0xec, 0xbc, 0x23, 0xd6,
  0xed, 0x0e, 0xda, 0xfb, 0xf5, 0x24, 0xbd, 0xe4, 0xe7, 0xde, 0xf5, 0xe5,
  0xec, 0xfe, 0x20, 0xe5, 0xf0, 0xe7, 0xd5, 0xe6, 0xd0, 0xec, 0xe7, 0xe8,
  0xff, 0xdf, 0xbe, 0xe6, 0xf9, 0xe9, 0x24, 0xc3, 0xd2, 0xcf, 0x01, 0x0f,
  0x30, 0xea, 0xd2, 0xf9, 0x10, 0xc4, 0xfa, 0xe6, 0xed, 0x23, 0x11, 0xce,
  0xdf, 0xfc, 0xfe, 0xd0, 0xca, 0x01, 0x00, 0xbe, 0x18, 0x10, 0x07, 0xee,
  0xf3, 0xd6, 0xf4, 0xdc, 0x07, 0x04, 0xc2, 0x01, 0xd4, 0xc7, 0xe8, 0xff,
  0x24, 0x34, 0xe4, 0x27, 0xb5, 0x28, 0x02, 0xda, 0xb8, 0xb0, 0x9a, 0xd5,
  0xf1, 0xe5, 0xf9, 0xc4, 0xc3, 0xc5, 0xc9, 0x0f, 0x00, 0xe4, 0x1d, 0x06,
  0xbc, 0x24, 0xc3, 0x3e, 0x03, 0xd4, 0xbc, 0xec, 0xf3, 0x00, 0x2a, 0xf7,
  0xff, 0x25, 0xae, 0x0f, 0xf2, 0x04, 0x01, 0xea, 0xd9, 0x01, 0x0a, 0xf1,
  0xe2, 0x00, 0xd5, 0xf9, 0x39, 0x19, 0xae, 0xf0, 0x26, 0x1b, 0xe1, 0x0b,
  0xee, 0xb1, 0x00, 0xee, 0xb4, 0x31, 0xf3, 0xf0, 0xfa, 0xdf, 0x2c, 0xc7,
  0xc7, 0xf4, 0x30, 0xdf, 0xdf, 0xe0, 0xe6, 0xf2, 0x01, 0x39, 0x02, 0xd1,
  0x14, 0xee, 0xc5, 0x11, 0xe1, 0x17, 0x00, 0x36, 0x11, 0xf0, 0xc9, 0x07,
  0xb4, 0x08, 0xe1, 0xcc, 0xd9, 0x23, 0xaa, 0xc7, 0xe9, 0x02, 0xfe, 0x4a,
  0x14, 0x01, 0xf6, 0xeb, 0xed, 0xfb, 0xfb, 0xe0, 0xf3, 0xdd, 0x41, 0xf5,
  0xf2, 0x00, 0xf0, 0xff, 0xf8, 0xd8, 0x3b, 0x01, 0xf6, 0xf6, 0x36, 0xd6,
  0xfb, 0x40, 0x00, 0xfb, 0xf4, 0x09, 0xe9, 0xf4, 0xed, 0xd6, 0xf5, 0xf6,
  0xf0, 0xf1, 0xf8, 0xc9, 0x01, 0x14, 0x13, 0x16, 0xda, 0xd1, 0x1b, 0xd8,
  0xfd, 0xfe, 0xfb, 0xfe, 0xf9, 0x00, 0xdd, 0xff, 0x01, 0xb7, 0xe5, 0x2c,
  0xfa, 0x00, 0x01, 0xf9, 0xf4, 0x01, 0xe7, 0xf9, 0x4d, 0xfe, 0xd7, 0x02,
  0xc8, 0x2d, 0xf0, 0xf9, 0xd8, 0xf3, 0xf8, 0xd0, 0xfd, 0xd0, 0xb8, 0xe5,
  0xd7, 0xf4, 0xe8, 0x02, 0xfe, 0xf6, 0xd7, 0xfe, 0x2f, 0xf8, 0xe8, 0x28,
  0xfb, 0xda, 0xe3, 0xd5, 0xff, 0xd8, 0xf0, 0x23, 0x0d, 0xf5, 0xd1, 0xef,
  0xf3, 0xe7, 0x00, 0xc2, 0xec, 0xef, 0xfa, 0x00, 0xf0, 0xe8, 0xe3, 0x12,
  0xf9, 0xe2, 0xe0, 0xd6, 0xf5, 0x00, 0xe5, 0xdd, 0xfd, 0x01, 0xb6, 0xd8,
  0xf4, 0x31, 0xe8, 0x1b, 0xdc, 0x1b, 0x01, 0x57, 0x5d, 0xf1, 0xc9, 0x01,
  0xc8, 0xcf, 0x0b, 0xff, 0xe7, 0xee, 0xe6, 0xe8, 0x31, 0xe1, 0xf4, 0xbd,
  0xc3, 0xb9, 0xda, 0xdb, 0x08, 0xb7, 0xdf, 0x42, 0x18, 0xb3, 0xce, 0xe3,
  0xff, 0x13, 0xda, 0xca, 0xf3, 0xc0, 0xed, 0x0a, 0xec, 0x0f, 0x02, 0x11,
  0xd9, 0xf9, 0xef, 0xf5, 0x01, 0xfe, 0xf2, 0xe9, 0x32, 0xf0, 0x01, 0xd7,
  0x0c, 0x01, 0x2b, 0xd9, 0xf5, 0xbd, 0xed, 0xd2, 0xcb, 0x09, 0xf4, 0xef,
  0x19, 0xdd, 0x35, 0x1f, 0xd3, 0xf7, 0x0e, 0x0e, 0x10, 0xf0, 0xf6, 0xde,
  0xf4, 0x34, 0x0c, 0x56, 0xeb, 0xf0, 0x04, 0xe4, 0xea, 0x21, 0x37, 0xda,
  0xff, 0xc6, 0xd2, 0xf4, 0xf3, 0x41, 0xf8, 0x19, 0x30, 0x26, 0x00, 0x06,
  0xd8, 0x24, 0xfe, 0xe5, 0xef, 0x10, 0x1d, 0xdd, 0xed, 0xd9, 0xe8, 0x14,
  0xd8, 0xdf, 0xae, 0xee, 0xf7, 0x01, 0x0c, 0xeb, 0xfc, 0xf8, 0x0f, 0xe6,
  0xd8, 0xe4, 0xfb, 0x04, 0xfd, 0x30, 0xf6, 0x01, 0x1f, 0xf8, 0xf5, 0xff,
  0xf3, 0xee, 0xf2, 0xf5, 0x27, 0xee, 0x31, 0x05, 0x10, 0xf7, 0xce, 0x24,
  0x0c, 0xf5, 0x00, 0x02, 0x07, 0x09, 0xfb, 0xfb, 0x01, 0xf6, 0xf8, 0xf1,
  0xf8, 0xcb, 0xec, 0xf1, 0x38, 0xdb, 0xf6, 0x0d, 0x09, 0x36, 0xe5, 0xe5,
  0x01, 0xe8, 0xfa, 0xf6, 0x1d, 0x28, 0x01, 0x25, 0x04, 0xff, 0xef, 0x14,
  0xf6, 0xf0, 0x01, 0x2f, 0xee, 0xed, 0xea, 0x09, 0xf7, 0xf5, 0xf0, 0x22,
  0x25, 0x16, 0xf0, 0x18, 0xdf, 0xef, 0xff, 0xf7, 0x15, 0x15, 0xe2, 0xff,
  0xf3, 0x07, 0xe6, 0xfb, 0xe3, 0x0a, 0xe2, 0xf8, 0x01, 0xee, 0xe3, 0xf8,
  0xec, 0xf8, 0xf3, 0x0b, 0xf8, 0xf6, 0xff, 0xd6, 0xee, 0x19, 0x02, 0x2e,
  0xef, 0xf0, 0x0e, 0xef, 0x01, 0xee, 0xef, 0xea, 0x1b, 0x36, 0xff, 0xf2,
  0x5a, 0x86, 0xff, 0xff, 0x00, 0x00, 0x00, 0x09, 0x2c, 0x00, 0x00, 0x00,
  0x11, 0x00, 0x00, 0x00, 0x08, 0x00, 0x00, 0x00, 0x2c, 0x00, 0x00, 0x00,
  0x16, 0x00, 0x00, 0x00, 0x6d, 0x6f, 0x64, 0x65, 0x6c, 0x5f, 0x35, 0x2f,
  0x64, 0x65, 0x6e, 0x73, 0x65, 0x5f, 0x35, 0x2f, 0x4d, 0x61, 0x74, 0x4d,
  0x75, 0x6c, 0x00, 0x00, 0x02, 0x00, 0x00, 0x00, 0x0a, 0x00, 0x00, 0x00,
  0x80, 0x00, 0x00, 0x00, 0x5c, 0x88, 0xff, 0xff, 0x18, 0x00, 0x00, 0x00,
  0x04, 0x00, 0x00, 0x00, 0x01, 0x00, 0x00, 0x00, 0x00, 0x00, 0x00, 0x00,
  0x00, 0x00, 0x00, 0x00, 0x00, 0x00, 0x00, 0x00, 0x01, 0x00, 0x00, 0x00,
  0x20, 0xa3, 0xbe, 0x3a, 0xda, 0x86, 0xff, 0xff, 0x04, 0x00, 0x00, 0x00,
  0x00, 0x02, 0x00, 0x00, 0xf8, 0xff, 0xff, 0xff, 0x00, 0x00, 0x00, 0x00,
  0x0c, 0x00, 0x00, 0x00, 0x25, 0x00, 0x00, 0x00, 0x12, 0x00, 0x00, 0x00,
  0xdc, 0xff, 0xff, 0xff, 0x1f, 0x00, 0x00, 0x00, 0xfa, 0xff, 0xff, 0xff,
  0x0a, 0x00, 0x00, 0x00, 0xe4, 0xff, 0xff, 0xff, 0x09, 0x00, 0x00, 0x00,
  0xdc, 0xff, 0xff, 0xff, 0xe4, 0xff, 0xff, 0xff, 0x09, 0x00, 0x00, 0x00,
  0x22, 0x00, 0x00, 0x00, 0x00, 0x00, 0x00, 0x00, 0x0d, 0x00, 0x00, 0x00,
  0x0f, 0x00, 0x00, 0x00, 0x0b, 0x00, 0x00, 0x00, 0x00, 0x00, 0x00, 0x00,
  0xeb, 0xff, 0xff, 0xff, 0xf7, 0xff, 0xff, 0xff, 0xf6, 0xff, 0xff, 0xff,
  0x0c, 0x00, 0x00, 0x00, 0xf2, 0xff, 0xff, 0xff, 0xe3, 0xff, 0xff, 0xff,
  0x04, 0x00, 0x00, 0x00, 0xe6, 0xff, 0xff, 0xff, 0x18, 0x00, 0x00, 0x00,
  0xf8, 0xff, 0xff, 0xff, 0x18, 0x00, 0x00, 0x00, 0xf9, 0xff, 0xff, 0xff,
  0xe2, 0xff, 0xff, 0xff, 0x1a, 0x00, 0x00, 0x00, 0x1a, 0x00, 0x00, 0x00,
  0xe8, 0xff, 0xff, 0xff, 0xf3, 0xff, 0xff, 0xff, 0x05, 0x00, 0x00, 0x00,
  0xfa, 0xff, 0xff, 0xff, 0xf3, 0xff, 0xff, 0xff, 0xff, 0xff, 0xff, 0xff,
  0x00, 0x00, 0x00, 0x00, 0xfa, 0xff, 0xff, 0xff, 0xdf, 0xff, 0xff, 0xff,
  0x19, 0x00, 0x00, 0x00, 0x1c, 0x00, 0x00, 0x00, 0x06, 0x00, 0x00, 0x00,
  0x27, 0x00, 0x00, 0x00, 0x0e, 0x00, 0x00, 0x00, 0xe6, 0xff, 0xff, 0xff,
  0x22, 0x00, 0x00, 0x00, 0x10, 0x00, 0x00, 0x00, 0xf8, 0xff, 0xff, 0xff,
  0x0c, 0x00, 0x00, 0x00, 0x08, 0x00, 0x00, 0x00, 0x1a, 0x00, 0x00, 0x00,
  0x00, 0x00, 0x00, 0x00, 0xe8, 0xff, 0xff, 0xff, 0xf9, 0xff, 0xff, 0xff,
  0x15, 0x00, 0x00, 0x00, 0x05, 0x00, 0x00, 0x00, 0x06, 0x00, 0x00, 0x00,
  0x00, 0x00, 0x00, 0x00, 0x14, 0x00, 0x00, 0x00, 0xe7, 0xff, 0xff, 0xff,
  0x00, 0x00, 0x00, 0x00, 0xf3, 0xff, 0xff, 0xff, 0x02, 0x00, 0x00, 0x00,
  0x0b, 0x00, 0x00, 0x00, 0xff, 0xff, 0xff, 0xff, 0xe7, 0xff, 0xff, 0xff,
  0x07, 0x00, 0x00, 0x00, 0xd7, 0xff, 0xff, 0xff, 0xe2, 0xff, 0xff, 0xff,
  0xe2, 0xff, 0xff, 0xff, 0x2f, 0x00, 0x00, 0x00, 0xe5, 0xff, 0xff, 0xff,
  0xea, 0xff, 0xff, 0xff, 0xfa, 0xff, 0xff, 0xff, 0xed, 0xff, 0xff, 0xff,
  0x0f, 0x00, 0x00, 0x00, 0x01, 0x00, 0x00, 0x00, 0xca, 0xff, 0xff, 0xff,
  0x0b, 0x00, 0x00, 0x00, 0xed, 0xff, 0xff, 0xff, 0x02, 0x00, 0x00, 0x00,
  0xd8, 0xff, 0xff, 0xff, 0x02, 0x00, 0x00, 0x00, 0x0b, 0x00, 0x00, 0x00,
  0xe9, 0xff, 0xff, 0xff, 0xd7, 0xff, 0xff, 0xff, 0xe9, 0xff, 0xff, 0xff,
  0xe3, 0xff, 0xff, 0xff, 0x06, 0x00, 0x00, 0x00, 0xf1, 0xff, 0xff, 0xff,
  0x08, 0x00, 0x00, 0x00, 0x10, 0x00, 0x00, 0x00, 0xfc, 0xff, 0xff, 0xff,
  0xbf, 0xff, 0xff, 0xff, 0xf0, 0xff, 0xff, 0xff, 0x00, 0x00, 0x00, 0x00,
  0x18, 0x00, 0x00, 0x00, 0x15, 0x00, 0x00, 0x00, 0x0d, 0x00, 0x00, 0x00,
  0x04, 0x00, 0x00, 0x00, 0xff, 0xff, 0xff, 0xff, 0xc8, 0xff, 0xff, 0xff,
  0x09, 0x00, 0x00, 0x00, 0xff, 0xff, 0xff, 0xff, 0xf3, 0xff, 0xff, 0xff,
  0x00, 0x00, 0x00, 0x00, 0xe6, 0xff, 0xff, 0xff, 0xfb, 0xff, 0xff, 0xff,
  0xb9, 0xff, 0xff, 0xff, 0x0e, 0x00, 0x00, 0x00, 0x0a, 0x00, 0x00, 0x00,
  0x0b, 0x00, 0x00, 0x00, 0x10, 0x00, 0x00, 0x00, 0x0d, 0x00, 0x00, 0x00,
  0xeb, 0xff, 0xff, 0xff, 0x26, 0x00, 0x00, 0x00, 0xfe, 0xff, 0xff, 0xff,
  0x33, 0x00, 0x00, 0x00, 0xff, 0xff, 0xff, 0xff, 0x00, 0x00, 0x00, 0x00,
  0x04, 0x00, 0x00, 0x00, 0x22, 0x00, 0x00, 0x00, 0x1b, 0x00, 0x00, 0x00,
  0xca, 0x88, 0xff, 0xff, 0x00, 0x00, 0x00, 0x02, 0x30, 0x00, 0x00, 0x00,
  0x10, 0x00, 0x00, 0x00, 0x08, 0x00, 0x00, 0x00, 0x2c, 0x00, 0x00, 0x00,
  0x18, 0x00, 0x00, 0x00, 0x73, 0x65, 0x70, 0x61, 0x72, 0x61, 0x62, 0x6c,
  0x65, 0x5f, 0x63, 0x6f, 0x6e, 0x76, 0x32, 0x64, 0x5f, 0x31, 0x36, 0x2f,
  0x62, 0x69, 0x61, 0x73, 0x00, 0x00, 0x00, 0x00, 0x01, 0x00, 0x00, 0x00,
  0x80, 0x00, 0x00, 0x00, 0xcc, 0x8a, 0xff, 0xff, 0x0c, 0x04, 0x00, 0x00,
  0x04, 0x00, 0x00, 0x00, 0x80, 0x00, 0x00, 0x00, 0x00, 0x00, 0x00, 0x00,
  0x00, 0x00, 0x00, 0x00, 0x00, 0x00, 0x00, 0x00, 0x00, 0x00, 0x00, 0x00,
  0x00, 0x00, 0x00, 0x00, 0x00, 0x00, 0x00, 0x00, 0x00, 0x00, 0x00, 0x00,
  0x00, 0x00, 0x00, 0x00, 0x00, 0x00, 0x00, 0x00, 0x00, 0x00, 0x00, 0x00,
  0x00, 0x00, 0x00, 0x00, 0x00, 0x00, 0x00, 0x00, 0x00, 0x00, 0x00, 0x00,
  0x00, 0x00, 0x00, 0x00, 0x00, 0x00, 0x00, 0x00, 0x00, 0x00, 0x00, 0x00,
  0x00, 0x00, 0x00, 0x00, 0x00, 0x00, 0x00, 0x00, 0x00, 0x00, 0x00, 0x00,
  0x00, 0x00, 0x00, 0x00, 0x00, 0x00, 0x00, 0x00, 0x00, 0x00, 0x00, 0x00,
  0x00, 0x00, 0x00, 0x00, 0x00, 0x00, 0x00, 0x00, 0x00, 0x00, 0x00, 0x00,
  0x00, 0x00, 0x00, 0x00, 0x00, 0x00, 0x00, 0x00, 0x00, 0x00, 0x00, 0x00,
  0x00, 0x00, 0x00, 0x00, 0x00, 0x00, 0x00, 0x00, 0x00, 0x00, 0x00, 0x00,
  0x00, 0x00, 0x00, 0x00, 0x00, 0x00, 0x00, 0x00, 0x00, 0x00, 0x00, 0x00,
  0x00, 0x00, 0x00, 0x00, 0x00, 0x00, 0x00, 0x00, 0x00, 0x00, 0x00, 0x00,
  0x00, 0x00, 0x00, 0x00, 0x00, 0x00, 0x00, 0x00, 0x00, 0x00, 0x00, 0x00,
  0x00, 0x00, 0x00, 0x00, 0x00, 0x00, 0x00, 0x00, 0x00, 0x00, 0x00, 0x00,
  0x00, 0x00, 0x00, 0x00, 0x00, 0x00, 0x00, 0x00, 0x00, 0x00, 0x00, 0x00,
  0x00, 0x00, 0x00, 0x00, 0x00, 0x00, 0x00, 0x00, 0x00, 0x00, 0x00, 0x00,
  0x00, 0x00, 0x00, 0x00, 0x00, 0x00, 0x00, 0x00, 0x00, 0x00, 0x00, 0x00,
  0x00, 0x00, 0x00, 0x00, 0x00, 0x00, 0x00, 0x00, 0x00, 0x00, 0x00, 0x00,
  0x00, 0x00, 0x00, 0x00, 0x00, 0x00, 0x00, 0x00, 0x00, 0x00, 0x00, 0x00,
  0x00, 0x00, 0x00, 0x00, 0x00, 0x00, 0x00, 0x00, 0x00, 0x00, 0x00, 0x00,
  0x00, 0x00, 0x00, 0x00, 0x00, 0x00, 0x00, 0x00, 0x00, 0x00, 0x00, 0x00,
  0x00, 0x00, 0x00, 0x00, 0x00, 0x00, 0x00, 0x00, 0x00, 0x00, 0x00, 0x00,
  0x00, 0x00, 0x00, 0x00, 0x00, 0x00, 0x00, 0x00, 0x00, 0x00, 0x00, 0x00,
  0x00, 0x00, 0x00, 0x00, 0x00, 0x00, 0x00, 0x00, 0x00, 0x00, 0x00, 0x00,
  0x00, 0x00, 0x00, 0x00, 0x00, 0x00, 0x00, 0x00, 0x00, 0x00, 0x00, 0x00,
  0x00, 0x00, 0x00, 0x00, 0x00, 0x00, 0x00, 0x00, 0x00, 0x00, 0x00, 0x00,
  0x00, 0x00, 0x00, 0x00, 0x00, 0x00, 0x00, 0x00, 0x00, 0x00, 0x00, 0x00,
  0x00, 0x00, 0x00, 0x00, 0x00, 0x00, 0x00, 0x00, 0x00, 0x00, 0x00, 0x00,
  0x00, 0x00, 0x00, 0x00, 0x00, 0x00, 0x00, 0x00, 0x00, 0x00, 0x00, 0x00,
  0x00, 0x00, 0x00, 0x00, 0x00, 0x00, 0x00, 0x00, 0x00, 0x00, 0x00, 0x00,
  0x00, 0x00, 0x00, 0x00, 0x00, 0x00, 0x00, 0x00, 0x00, 0x00, 0x00, 0x00,
  0x00, 0x00, 0x00, 0x00, 0x00, 0x00, 0x00, 0x00, 0x00, 0x00, 0x00, 0x00,
  0x00, 0x00, 0x00, 0x00, 0x00, 0x00, 0x00, 0x00, 0x00, 0x00, 0x00, 0x00,
  0x00, 0x00, 0x00, 0x00, 0x00, 0x00, 0x00, 0x00, 0x00, 0x00, 0x00, 0x00,
  0x00, 0x00, 0x00, 0x00, 0x00, 0x00, 0x00, 0x00, 0x00, 0x00, 0x00, 0x00,
  0x00, 0x00, 0x00, 0x00, 0x00, 0x00, 0x00, 0x00, 0x00, 0x00, 0x00, 0x00,
  0x00, 0x00, 0x00, 0x00, 0x00, 0x00, 0x00, 0x00, 0x00, 0x00, 0x00, 0x00,
  0x00, 0x00, 0x00, 0x00, 0x00, 0x00, 0x00, 0x00, 0x00, 0x00, 0x00, 0x00,
  0x00, 0x00, 0x00, 0x00, 0x00, 0x00, 0x00, 0x00, 0x00, 0x00, 0x00, 0x00,
  0x00, 0x00, 0x00, 0x00, 0x00, 0x00, 0x00, 0x00, 0x00, 0x00, 0x00, 0x00,
  0x00, 0x00, 0x00, 0x00, 0x00, 0x00, 0x00, 0x00, 0x00, 0x00, 0x00, 0x00,
  0x00, 0x00, 0x00, 0x00, 0x00, 0x00, 0x00, 0x00, 0x00, 0x00, 0x00, 0x00,
  0x00, 0x00, 0x00, 0x00, 0x00, 0x00, 0x00, 0x00, 0x00, 0x00, 0x00, 0x00,
  0x00, 0x00, 0x00, 0x00, 0x00, 0x00, 0x00, 0x00, 0x00, 0x00, 0x00, 0x00,
  0x00, 0x00, 0x00, 0x00, 0x00, 0x00, 0x00, 0x00, 0x00, 0x00, 0x00, 0x00,
  0x00, 0x00, 0x00, 0x00, 0x00, 0x00, 0x00, 0x00, 0x00, 0x00, 0x00, 0x00,
  0x00, 0x00, 0x00, 0x00, 0x00, 0x00, 0x00, 0x00, 0x00, 0x00, 0x00, 0x00,
  0x00, 0x00, 0x00, 0x00, 0x00, 0x00, 0x00, 0x00, 0x00, 0x00, 0x00, 0x00,
  0x00, 0x00, 0x00, 0x00, 0x00, 0x00, 0x00, 0x00, 0x00, 0x00, 0x00, 0x00,
  0x00, 0x00, 0x00, 0x00, 0x00, 0x00, 0x00, 0x00, 0x00, 0x00, 0x00, 0x00,
  0x00, 0x00, 0x00, 0x00, 0x00, 0x00, 0x00, 0x00, 0x00, 0x00, 0x00, 0x00,
  0x00, 0x00, 0x00, 0x00, 0x00, 0x00, 0x00, 0x00, 0x00, 0x00, 0x00, 0x00,
  0x00, 0x00, 0x00, 0x00, 0x00, 0x00, 0x00, 0x00, 0x00, 0x00, 0x00, 0x00,
  0x00, 0x00, 0x00, 0x00, 0x00, 0x00, 0x00, 0x00, 0x00, 0x00, 0x00, 0x00,
  0x00, 0x00, 0x00, 0x00, 0x00, 0x00, 0x00, 0x00, 0x00, 0x00, 0x00, 0x00,
  0x00, 0x00, 0x00, 0x00, 0x00, 0x00, 0x00, 0x00, 0x00, 0x00, 0x00, 0x00,
  0x00, 0x00, 0x00, 0x00, 0x00, 0x00, 0x00, 0x00, 0x00, 0x00, 0x00, 0x00,
  0x00, 0x00, 0x00, 0x00, 0x00, 0x00, 0x00, 0x00, 0x00, 0x00, 0x00, 0x00,
  0x00, 0x00, 0x00, 0x00, 0x00, 0x00, 0x00, 0x00, 0x00, 0x00, 0x00, 0x00,
  0x00, 0x00, 0x00, 0x00, 0x00, 0x00, 0x00, 0x00, 0x00, 0x00, 0x00, 0x00,
  0x00, 0x00, 0x00, 0x00, 0x00, 0x00, 0x00, 0x00, 0x00, 0x00, 0x00, 0x00,
  0x00, 0x00, 0x00, 0x00, 0x00, 0x00, 0x00, 0x00, 0x00, 0x00, 0x00, 0x00,
  0x00, 0x00, 0x00, 0x00, 0x00, 0x00, 0x00, 0x00, 0x00, 0x00, 0x00, 0x00,
  0x00, 0x00, 0x00, 0x00, 0x00, 0x00, 0x00, 0x00, 0x00, 0x00, 0x00, 0x00,
  0x00, 0x00, 0x00, 0x00, 0x00, 0x00, 0x00, 0x00, 0x00, 0x00, 0x00, 0x00,
  0x00, 0x00, 0x00, 0x00, 0x00, 0x00, 0x00, 0x00, 0x00, 0x00, 0x00, 0x00,
  0x00, 0x00, 0x00, 0x00, 0x00, 0x00, 0x00, 0x00, 0x00, 0x00, 0x00, 0x00,
  0x00, 0x00, 0x00, 0x00, 0x00, 0x00, 0x00, 0x00, 0x00, 0x00, 0x00, 0x00,
  0x00, 0x00, 0x00, 0x00, 0x00, 0x00, 0x00, 0x00, 0x00, 0x00, 0x00, 0x00,
  0x00, 0x00, 0x00, 0x00, 0x00, 0x00, 0x00, 0x00, 0x00, 0x00, 0x00, 0x00,
  0x00, 0x00, 0x00, 0x00, 0x00, 0x00, 0x00, 0x00, 0x00, 0x00, 0x00, 0x00,
  0x00, 0x00, 0x00, 0x00, 0x00, 0x00, 0x00, 0x00, 0x00, 0x00, 0x00, 0x00,
  0x00, 0x00, 0x00, 0x00, 0x00, 0x00, 0x00, 0x00, 0x00, 0x00, 0x00, 0x00,
  0x00, 0x00, 0x00, 0x00, 0x00, 0x00, 0x00, 0x00, 0x00, 0x00, 0x00, 0x00,
  0x00, 0x00, 0x00, 0x00, 0x00, 0x00, 0x00, 0x00, 0x00, 0x00, 0x00, 0x00,
  0x00, 0x00, 0x00, 0x00, 0x00, 0x00, 0x00, 0x00, 0x00, 0x00, 0x00, 0x00,
  0x00, 0x00, 0x00, 0x00, 0x00, 0x00, 0x00, 0x00, 0x00, 0x00, 0x00, 0x00,
  0x00, 0x00, 0x00, 0x00, 0x00, 0x00, 0x00, 0x00, 0x00, 0x00, 0x00, 0x00,
  0x00, 0x00, 0x00, 0x00, 0x00, 0x00, 0x00, 0x00, 0x00, 0x00, 0x00, 0x00,
  0x00, 0x00, 0x00, 0x00, 0x00, 0x00, 0x00, 0x00, 0x00, 0x00, 0x00, 0x00,
  0x00, 0x00, 0x00, 0x00, 0x00, 0x00, 0x00, 0x00, 0x00, 0x00, 0x00, 0x00,
  0x00, 0x00, 0x00, 0x00, 0x00, 0x00, 0x00, 0x00, 0x00, 0x00, 0x00, 0x00,
  0x00, 0x00, 0x00, 0x00, 0x00, 0x00, 0x00, 0x00, 0x00, 0x00, 0x00, 0x00,
  0x00, 0x00, 0x00, 0x00, 0x00, 0x00, 0x00, 0x00, 0x00, 0x00, 0x00, 0x00,
  0x00, 0x00, 0x00, 0x00, 0x00, 0x00, 0x00, 0x00, 0x00, 0x00, 0x00, 0x00,
  0x80, 0x00, 0x00, 0x00, 0x76, 0x75, 0xab, 0x3c, 0xc1, 0xc0, 0x27, 0x3b,
  0x13, 0x6f, 0xae, 0x3c, 0xff, 0x8e, 0x64, 0x3c, 0x9c, 0xab, 0x8d, 0x3c,
  0xeb, 0x82, 0x41, 0x3c, 0xca, 0xef, 0x87, 0x3c, 0xcf, 0xad, 0x15, 0x3c,
  0xf6, 0xe2, 0xaa, 0x3c, 0x8d, 0xe1, 0x72, 0x3c, 0xae, 0xb8, 0x1b, 0x3d,
  0x3d, 0xf9, 0x37, 0x3c, 0xa7, 0xe1, 0x47, 0x3c, 0x0c, 0xc4, 0xc9, 0x3c,
  0xae, 0xe4, 0x83, 0x3c, 0x69, 0xe7, 0x08, 0x3b, 0x82, 0x7c, 0x7b, 0x3c,
  0x7d, 0x8d, 0xb1, 0x3c, 0x87, 0x01, 0x95, 0x3c, 0x49, 0x59, 0x00, 0x3b,
  0x90, 0xa7, 0x0d, 0x3c, 0x5f, 0x7d, 0x2c, 0x3c, 0x13, 0x34, 0x8a, 0x3c,
  0x4b, 0xf3, 0x6f, 0x3c, 0xcb, 0x3b, 0x91, 0x3c, 0xe1, 0xba, 0x3d, 0x3c,
  0x91, 0x64, 0x0a, 0x3d, 0xb1, 0xdc, 0x81, 0x3c, 0xe4, 0x5a, 0x60, 0x3c,
  0x73, 0x3f, 0x71, 0x3c, 0x88, 0xec, 0x4d, 0x3c, 0xf4, 0x31, 0x61, 0x3c,
  0xd8, 0xc8, 0x13, 0x3c, 0xa1, 0xcd, 0x82, 0x3c, 0x61, 0x1c, 0x97, 0x3c,
  0x99, 0x02, 0x3e, 0x3c, 0xba, 0x1f, 0x86, 0x3c, 0x15, 0xc8, 0xaf, 0x3c,
  0xc3, 0xa1, 0x4b, 0x3c, 0xe7, 0xc7, 0xa3, 0x3c, 0x7c, 0xed, 0x12, 0x3b,
  0x66, 0x1b, 0x80, 0x3c, 0x49, 0x65, 0x4b, 0x3c, 0x91, 0x97, 0x42, 0x3c,
  0x2a, 0xb0, 0xaf, 0x3c, 0x66, 0x3c, 0x73, 0x3c, 0x33, 0x03, 0x4c, 0x3c,
  0x78, 0xbc, 0x19, 0x3c, 0xd0, 0xb4, 0xcf, 0x3c, 0x0f, 0x3b, 0x2f, 0x3c,
  0x37, 0x86, 0xa0, 0x3c, 0x38, 0xdc, 0xa5, 0x3c, 0x82, 0xe3, 0x68, 0x3c,
  0x01, 0x24, 0xaf, 0x3c, 0x9f, 0xcd, 0x88, 0x3c, 0xa0, 0x45, 0xab, 0x3c,
  0x72, 0xbd, 0x29, 0x3b, 0xe6, 0x91, 0x29, 0x3c, 0x72, 0x99, 0x67, 0x3c,
  0x4c, 0xa9, 0x7b, 0x3c, 0x81, 0x55, 0x65, 0x3c, 0xd1, 0xa0, 0xdd, 0x3c,
  0x41, 0x85, 0x01, 0x3b, 0x0e, 0xf7, 0xae, 0x3c, 0x64, 0x7c, 0x65, 0x3c,
  0x1a, 0x7f, 0xef, 0x3a, 0x66, 0x09, 0xb0, 0x3c, 0xec, 0x7c, 0xeb, 0x3c,
  0xef, 0x0a, 0x9d, 0x3c, 0xd4, 0xf2, 0x53, 0x3c, 0x41, 0x52, 0x57, 0x3c,
  0x32, 0x78, 0x05, 0x3d, 0xe7, 0xa8, 0x22, 0x3c, 0xb9, 0x4b, 0x5c, 0x3c,
  0x8d, 0xe9, 0x6e, 0x3c, 0x27, 0x5f, 0x87, 0x3c, 0x05, 0xc5, 0x7d, 0x3c,
  0xce, 0x0e, 0x2c, 0x3c, 0x21, 0x6e, 0x63, 0x3c, 0xa5, 0x63, 0x9a, 0x3c,
  0x68, 0x87, 0xb1, 0x3c, 0xde, 0x84, 0x37, 0x3c, 0x93, 0x48, 0x05, 0x3c,
  0x05, 0x12, 0x53, 0x3c, 0xdb, 0x00, 0x6d, 0x3c, 0x9a, 0xf4, 0x5f, 0x3c,
  0xd6, 0x74, 0x8f, 0x3c, 0xcc, 0x31, 0x9b, 0x3c, 0x54, 0xc3, 0xc6, 0x3c,
  0x0c, 0x80, 0x35, 0x3c, 0xf3, 0xaa, 0xf8, 0x3b, 0xa5, 0xb3, 0x9b, 0x3c,
  0xeb, 0x6e, 0x40, 0x3c, 0x52, 0x1b, 0x8f, 0x3c, 0xdb, 0x39, 0x25, 0x3c,
  0x1b, 0x9f, 0xc9, 0x3c, 0x3a, 0x75, 0x9b, 0x3c, 0x5d, 0x67, 0x33, 0x3c,
  0x62, 0x1b, 0x2f, 0x3c, 0x94, 0x5a, 0x68, 0x3c, 0x99, 0xa9, 0x03, 0x3b,
  0x50, 0x4f, 0x4d, 0x3c, 0xf4, 0xf5, 0xda, 0x3c, 0xc0, 0x2d, 0xad, 0x3c,
  0x86, 0x6b, 0x62, 0x3c, 0x13, 0x61, 0x1f, 0x3c, 0xb9, 0xe0, 0x42, 0x3c,
  0x3b, 0xe6, 0x17, 0x3c, 0x5d, 0xab, 0x54, 0x3c, 0x23, 0xc6, 0x61, 0x3c,
  0xe7, 0x7d, 0x1a, 0x3b, 0x36, 0xb6, 0x15, 0x3c, 0xa4, 0x64, 0x9d, 0x3c,
  0xf2, 0x61, 0x3e, 0x3c, 0xeb, 0x75, 0x4c, 0x3c, 0x3a, 0x52, 0xbf, 0x3c,
  0xb8, 0xd5, 0x2c, 0x3c, 0x79, 0x3a, 0xa1, 0x3c, 0x6e, 0x2c, 0x28, 0x3c,
  0xb2, 0xf1, 0x96, 0x3c, 0x28, 0xfc, 0xb1, 0x3c, 0xbc, 0x92, 0x85, 0x3c,
  0xf2, 0x9f, 0x4e, 0x3c, 0xb0, 0x45, 0x88, 0x3c, 0x7b, 0x4f, 0xc0, 0x3c,
  0xbd, 0xe6, 0xf1, 0x3c, 0xde, 0xd0, 0x49, 0x3c, 0x1a, 0xf5, 0x62, 0x3c,
  0x3a, 0x8f, 0xff, 0xff, 0x04, 0x00, 0x00, 0x00, 0x00, 0x20, 0x00, 0x00,
  0xf5, 0x2f, 0xea, 0xf3, 0xdc, 0xfa, 0xfc, 0x06, 0xf2, 0x27, 0x0a, 0xf8,
  0xf6, 0x04, 0xf6, 0x16, 0x28, 0x06, 0xef, 0xc7, 0xd4, 0x02, 0x0b, 0x17,
  0x05, 0x0b, 0xee, 0x9b, 0xfa, 0x05, 0xe3, 0xff, 0x0f, 0x1a, 0x24, 0xc8,
  0x05, 0xea, 0x08, 0xf6, 0x01, 0x12, 0xe6, 0x04, 0x20, 0x07, 0xfc, 0x7f,
  0x09, 0xfe, 0xe8, 0x2c, 0xfe, 0x15, 0x16, 0xf5, 0x13, 0xfd, 0xf3, 0xf5,
  0xfd, 0xcb, 0x09, 0x01, 0xdf, 0xef, 0x36, 0x11, 0x19, 0xe7, 0xe6, 0x7f,
  0xfd, 0x12, 0xf9, 0xc0, 0x30, 0xac, 0x2f, 0x01, 0x33, 0xa1, 0xd5, 0xe9,
  0x0a, 0xda, 0xa9, 0xc9, 0x1b, 0xfd, 0x1d, 0x14, 0x47, 0x54, 0xeb, 0xa5,
  0xe9, 0x20, 0x20, 0x0e, 0xd1, 0xfe, 0xd0, 0xbe, 0xca, 0xc4, 0x0a, 0xea,
  0xc8, 0xb1, 0xd0, 0x00, 0x15, 0x22, 0xd1, 0xbe, 0xdf, 0xb0, 0x1f, 0x3e,
  0xc9, 0x45, 0x56, 0x63, 0x50, 0xf1, 0xb8, 0xac, 0x07, 0x0d, 0xe8, 0xe0,
  0xf5, 0x4b, 0xdd, 0xdf, 0x07, 0x4d, 0x11, 0xa1, 0xf6, 0xd9, 0x96, 0x50,
  0xc5, 0xff, 0x29, 0xf5, 0x04, 0xff, 0x9c, 0x2d, 0xe7, 0x9f, 0x0d, 0xe4,
  0x2b, 0xd0, 0xe9, 0x81, 0xfb, 0x00, 0xf1, 0xf7, 0x1b, 0xcb, 0x0d, 0x20,
  0x20, 0xa2, 0xfd, 0xd4, 0x1e, 0xef, 0xea, 0x0b, 0xd6, 0xf3, 0xe1, 0x5a,
  0xe3, 0x12, 0x03, 0xf1, 0xfa, 0xd6, 0xf3, 0xf2, 0x00, 0xb4, 0x13, 0x30,
  0xef, 0xf5, 0x0a, 0x03, 0xf9, 0xed, 0xea, 0xe9, 0xec, 0xe6, 0x97, 0x18,
  0x15, 0xe2, 0x26, 0xe8, 0xe5, 0x09, 0x1d, 0x1f, 0xc8, 0xf1, 0x01, 0xea,
  0xe3, 0x0d, 0xf4, 0xf1, 0xec, 0xef, 0xd9, 0x01, 0xdf, 0xbe, 0x07, 0xf8,
  0x07, 0xf3, 0x4a, 0x81, 0xe4, 0x10, 0x1c, 0xf4, 0x1c, 0xfa, 0x01, 0x03,
  0x0b, 0x0a, 0xda, 0xeb, 0xfa, 0xf9, 0xc1, 0xca, 0xff, 0xc7, 0x24, 0x2b,
  0x23, 0x07, 0x01, 0x99, 0x10, 0x11, 0x5f, 0x1c, 0x26, 0x11, 0xf6, 0x20,
  0xff, 0xee, 0xf1, 0x05, 0x18, 0xd0, 0x0e, 0xd4, 0xd7, 0xf3, 0x01, 0xef,
  0x4d, 0xcb, 0x13, 0x0f, 0xfd, 0x17, 0xcf, 0x08, 0xfb, 0x56, 0x0b, 0xfe,
  0xff, 0x15, 0xf4, 0xfa, 0xe6, 0x0c, 0xf9, 0xb0, 0x07, 0x33, 0xee, 0x19,
  0x95, 0x01, 0xf9, 0xe9, 0xc4, 0xf9, 0xdb, 0x23, 0x26, 0x9f, 0xf4, 0xdc,
  0x05, 0xf2, 0xc8, 0x1f, 0x46, 0x0f, 0x81, 0xe0, 0xfd, 0xc4, 0xff, 0x7f,
  0xf2, 0x3b, 0xdd, 0x1f, 0x47, 0xd4, 0x11, 0x0e, 0xc1, 0x44, 0x1c, 0xcc,
  0xdf, 0xf0, 0x9e, 0x0d, 0xdd, 0x05, 0x01, 0xf1, 0xf8, 0x0e, 0x0a, 0x31,
  0xdf, 0xd5, 0xfa, 0x2a, 0xe3, 0xd3, 0x36, 0xfc, 0xc7, 0xc9, 0xe3, 0x25,
  0xea, 0x23, 0x0a, 0x2d, 0x2d, 0xe2, 0x21, 0x32, 0xe3, 0x51, 0x88, 0x9f,
  0xac, 0xdf, 0xe7, 0x34, 0x02, 0x26, 0xff, 0xfa, 0x0c, 0x29, 0x48, 0x57,
  0x81, 0xbe, 0xe5, 0xc0, 0x93, 0xd1, 0x16, 0xcf, 0xf7, 0x59, 0x12, 0xdf,
  0xf5, 0xbb, 0xc3, 0x14, 0xd5, 0x01, 0x35, 0x31, 0xe0, 0xfa, 0xe1, 0x75,
  0xcb, 0xd1, 0x24, 0x04, 0x6b, 0xfa, 0xd3, 0xeb, 0x17, 0xdc, 0xda, 0x52,
  0xaf, 0xce, 0x2e, 0xec, 0xd6, 0xe1, 0x16, 0xcf, 0x16, 0xec, 0x97, 0x12,
  0xea, 0xf9, 0x06, 0x32, 0x3d, 0x01, 0xc9, 0xe2, 0x00, 0xd1, 0xde, 0xd6,
  0x1a, 0xec, 0xa3, 0xf0, 0x15, 0x58, 0xf7, 0x27, 0xf8, 0xf4, 0xce, 0xac,
  0xd0, 0x21, 0x4e, 0xfd, 0x07, 0x18, 0xc3, 0x1f, 0x63, 0xe6, 0xb9, 0xf5,
  0x83, 0xfd, 0x00, 0xee, 0x0a, 0xf4, 0x81, 0xf1, 0x0d, 0xbe, 0xac, 0x1d,
  0xf4, 0x61, 0x34, 0xd7, 0x0f, 0xa3, 0x44, 0x4a, 0xb3, 0x29, 0x49, 0x3c,
  0x08, 0x0c, 0xf9, 0xdd, 0x12, 0xf3, 0xee, 0x50, 0xdf, 0x4e, 0x37, 0x1e,
  0xfe, 0x0f, 0xaf, 0xce, 0xd7, 0x40, 0xa3, 0xdb, 0xed, 0x17, 0x7c, 0x15,
  0x08, 0x33, 0x0f, 0xf1, 0x7f, 0xea, 0xdb, 0xf4, 0xf2, 0xf5, 0xe4, 0x07,
  0x85, 0x9e, 0x2a, 0x06, 0xfb, 0x05, 0xd7, 0x22, 0xf0, 0xf0, 0xf9, 0xfd,
  0xfb, 0xf5, 0x1e, 0xe4, 0xee, 0x0e, 0x08, 0x28, 0x21, 0xef, 0x14, 0x0a,
  0xf1, 0xc9, 0x2a, 0xf3, 0xf7, 0xa5, 0xe8, 0xf2, 0x0e, 0xe5, 0x4e, 0x01,
  0xf3, 0x25, 0x01, 0xee, 0xb3, 0xfa, 0xe7, 0x0f, 0xfd, 0x1f, 0x04, 0x17,
  0xf4, 0x0b, 0xe3, 0x2e, 0xf8, 0x24, 0xe0, 0xf0, 0xeb, 0x10, 0x03, 0xf9,
  0xed, 0xef, 0xc9, 0x28, 0x77, 0xe3, 0xd8, 0x1c, 0xd2, 0x0e, 0xf4, 0xfe,
  0xe4, 0xf0, 0xde, 0xfe, 0x0c, 0xfa, 0xb9, 0x11, 0xb8, 0x14, 0x0f, 0xe9,
  0x41, 0x2d, 0x11, 0x4f, 0xcb, 0x13, 0xc6, 0x2b, 0xf7, 0x19, 0x02, 0xf2,
  0x11, 0x46, 0x19, 0x10, 0xd4, 0x30, 0xf1, 0xf3, 0x01, 0x2f, 0xba, 0xff,
  0xbd, 0x7f, 0x23, 0x0b, 0xf9, 0xd7, 0x01, 0xe0, 0xe7, 0xf1, 0x0f, 0x14,
  0xfd, 0x03, 0x04, 0x08, 0x0c, 0x0b, 0x15, 0x01, 0x1a, 0x01, 0x0c, 0xfc,
  0x43, 0x13, 0x0f, 0x08, 0x04, 0x10, 0x18, 0xfb, 0xf5, 0x11, 0xeb, 0x0b,
  0xfe, 0x00, 0x43, 0x00, 0xe3, 0xf0, 0x0e, 0xc4, 0xfd, 0x0b, 0xf2, 0xe0,
  0x81, 0xff, 0xf2, 0xfc, 0x3d, 0xfe, 0xfa, 0xf7, 0x22, 0x1f, 0x09, 0x12,
  0xfc, 0xf7, 0x1f, 0x0f, 0x63, 0x10, 0x19, 0xea, 0xde, 0xb4, 0xe6, 0x71,
  0xe8, 0xcc, 0xba, 0xec, 0xfe, 0xc8, 0x23, 0x1d, 0x92, 0xfa, 0x08, 0xe8,
  0xcc, 0x08, 0xbd, 0x11, 0xfa, 0x36, 0xf7, 0xeb, 0xf8, 0xf9, 0xd3, 0xbe,
  0xeb, 0xad, 0x09, 0x2b, 0x04, 0x06, 0x42, 0x33, 0xe3, 0x0c, 0xf4, 0x2e,
  0xd6, 0x59, 0x4d, 0x27, 0x19, 0x0e, 0x3a, 0x7f, 0xc4, 0x15, 0xfb, 0xc8,
  0x07, 0x2d, 0xf4, 0xec, 0x05, 0x12, 0x15, 0xf2, 0x1e, 0x38, 0xc3, 0x2d,
  0xf4, 0x8c, 0xe4, 0x65, 0x0c, 0x07, 0xab, 0xf7, 0x29, 0xfa, 0x02, 0x28,
  0xe5, 0x21, 0x0a, 0xb6, 0xbe, 0x06, 0xd5, 0xbb, 0x04, 0x19, 0x18, 0xd9,
  0xdd, 0x0f, 0xd5, 0x00, 0xd4, 0xc6, 0xd2, 0x4e, 0xfb, 0x03, 0x39, 0x36,
  0xae, 0xc2, 0x0d, 0x22, 0xdf, 0x7c, 0x30, 0x33, 0x21, 0xda, 0x13, 0x54,
  0xa8, 0x29, 0x10, 0xde, 0xf5, 0xe0, 0x0d, 0x7e, 0xef, 0x12, 0x70, 0x13,
  0x38, 0xe8, 0xe4, 0x7f, 0x07, 0x16, 0xe7, 0x1b, 0xc5, 0x28, 0xf9, 0xf6,
  0xf4, 0x38, 0xf9, 0x8f, 0xda, 0xe7, 0x95, 0x6c, 0xbc, 0x06, 0x0a, 0x2b,
  0xe7, 0xf8, 0xb4, 0x0d, 0xd2, 0x92, 0xe0, 0xaa, 0x17, 0xdc, 0xe6, 0x81,
  0xd7, 0xf4, 0xfb, 0xf7, 0xef, 0xfd, 0xfe, 0x3d, 0x09, 0x8f, 0x0b, 0xed,
  0x14, 0x03, 0xdb, 0x4b, 0xf4, 0x0f, 0xf9, 0x73, 0xe8, 0x16, 0xf7, 0x08,
  0xfc, 0xfb, 0x05, 0xe8, 0xf7, 0xb0, 0xe5, 0x17, 0xbe, 0x47, 0x29, 0x81,
  0xdb, 0xc1, 0xf8, 0xcf, 0xf7, 0xe6, 0x07, 0x0c, 0x0a, 0xfe, 0xdf, 0xeb,
  0x12, 0x08, 0x1a, 0x10, 0xe5, 0x3c, 0xf9, 0x31, 0xd5, 0xe4, 0x29, 0xd2,
  0xee, 0xf7, 0xce, 0xf6, 0x03, 0xc9, 0x01, 0x43, 0x1e, 0xc2, 0x20, 0xe0,
  0xca, 0xfb, 0x19, 0xe2, 0x02, 0x0c, 0xd7, 0xc3, 0xf9, 0x1f, 0x44, 0x0c,
  0x4f, 0x00, 0xfd, 0xb1, 0x18, 0xe1, 0x31, 0xe4, 0x1f, 0xf1, 0x19, 0xf8,
  0xdf, 0xfe, 0x42, 0xbd, 0x02, 0xeb, 0x2a, 0xd0, 0x54, 0x17, 0x63, 0xf7,
  0x8f, 0x84, 0x2b, 0x24, 0xa4, 0xc5, 0xbb, 0xdf, 0x3f, 0xa1, 0x13, 0x70,
  0x05, 0x3c, 0xae, 0x4c, 0xfd, 0xdf, 0xbb, 0xa2, 0xcb, 0xa6, 0x5f, 0x13,
  0xf2, 0x2f, 0xe9, 0xaa, 0xcb, 0xee, 0x7f, 0x3a, 0x0b, 0xb8, 0x92, 0x0f,
  0x4f, 0xad, 0x31, 0x62, 0x47, 0xf2, 0xd0, 0xe7, 0xe1, 0xc1, 0x17, 0x11,
  0x51, 0x0a, 0xc2, 0xd9, 0x0b, 0xfd, 0x0e, 0x1c, 0xfa, 0x50, 0x0f, 0xe4,
  0x0c, 0xb7, 0x24, 0xd4, 0xd6, 0xdb, 0xd2, 0x45, 0xc1, 0xdb, 0x1e, 0xcd,
  0xf8, 0xec, 0xbe, 0xe9, 0xe9, 0xe3, 0xf1, 0xf2, 0x15, 0xd7, 0x0a, 0xb9,
  0xc8, 0xf5, 0x05, 0xff, 0x0f, 0x0d, 0x0b, 0x40, 0x27, 0x81, 0x46, 0xc2,
  0x21, 0xef, 0xf0, 0x04, 0x0c, 0x30, 0x45, 0x1c, 0xd9, 0x29, 0x1d, 0xf6,
  0xd9, 0xd9, 0xce, 0xdf, 0xe0, 0xee, 0x0e, 0x45, 0xdd, 0xf9, 0x0d, 0x12,
  0x4c, 0x2f, 0xf4, 0x39, 0xeb, 0x2c, 0xd4, 0x08, 0x07, 0xb2, 0xe1, 0xe5,
  0xfe, 0x06, 0x0a, 0x01, 0x30, 0xb7, 0x00, 0xd7, 0xff, 0x06, 0xe5, 0x1a,
  0x2e, 0x09, 0x0f, 0xf5, 0x09, 0xe5, 0x01, 0x0e, 0x00, 0x03, 0x0a, 0xac,
  0xf9, 0x05, 0xec, 0x0e, 0xc5, 0xff, 0x28, 0x09, 0xed, 0xcf, 0x05, 0xdf,
  0xef, 0x81, 0xd1, 0xfc, 0x06, 0xee, 0xff, 0x22, 0x36, 0x06, 0xd0, 0xbd,
  0xe9, 0xb0, 0x2f, 0xbe, 0x9d, 0xca, 0xf1, 0xf9, 0xf8, 0x15, 0x0b, 0x1b,
  0x00, 0x2f, 0x0b, 0x08, 0x14, 0x17, 0x0d, 0x01, 0x25, 0x08, 0x17, 0x36,
  0x02, 0x21, 0x25, 0xcb, 0xf1, 0xed, 0x15, 0x22, 0x1f, 0x81, 0x3a, 0xfc,
  0xe2, 0xc8, 0x23, 0x07, 0xf6, 0x0d, 0xe8, 0xe4, 0xd0, 0x05, 0x9a, 0x02,
  0x0c, 0xd4, 0x0a, 0x26, 0x16, 0xfc, 0x3c, 0xe3, 0x07, 0xfe, 0x14, 0xe4,
  0x0d, 0x17, 0x31, 0xf9, 0xf9, 0xe5, 0x39, 0xa1, 0xcc, 0xc8, 0xcf, 0x66,
  0x0e, 0xd2, 0x45, 0xb1, 0xba, 0x15, 0x22, 0xf7, 0x1a, 0x93, 0x09, 0xe9,
  0x0f, 0xa6, 0x10, 0x00, 0x25, 0x95, 0x49, 0x85, 0x30, 0x0a, 0x18, 0xfe,
  0x1d, 0x9f, 0x07, 0xaa, 0xdc, 0x68, 0xfd, 0xca, 0x94, 0xc1, 0x34, 0xfb,
  0x4e, 0xbd, 0x90, 0x1c, 0x79, 0x25, 0x99, 0xe2, 0x17, 0xb2, 0x4a, 0x44,
  0xd2, 0x76, 0x7f, 0xdb, 0xf2, 0x9e, 0x27, 0xed, 0xe2, 0x1c, 0x60, 0xd2,
  0x37, 0x37, 0x7f, 0xdc, 0x18, 0x16, 0x51, 0x19, 0x13, 0x38, 0xc6, 0xb3,
  0x06, 0x95, 0x15, 0x0e, 0x59, 0xff, 0x07, 0xd6, 0x00, 0x28, 0xa9, 0x0f,
  0x02, 0x0a, 0x17, 0x4a, 0x13, 0x49, 0x01, 0xd1, 0xb5, 0x05, 0xe5, 0xf6,
  0xf6, 0xdc, 0xb8, 0x2b, 0xdf, 0x3b, 0xfc, 0x17, 0xf6, 0x08, 0x5d, 0xe9,
  0xa6, 0x39, 0xd1, 0x2b, 0x9f, 0x31, 0x37, 0xf6, 0xe1, 0x7e, 0x62, 0x30,
  0xf6, 0x52, 0xf6, 0x0e, 0x15, 0x49, 0x23, 0xd9, 0x05, 0x53, 0xf1, 0x13,
  0xf4, 0xea, 0x21, 0xee, 0xf1, 0x0f, 0x2a, 0xb9, 0x1c, 0x05, 0xf0, 0x16,
  0xf9, 0xee, 0x11, 0x4e, 0xd6, 0x2c, 0x5b, 0xc3, 0xfa, 0xeb, 0xfb, 0x09,
  0x2c, 0x0b, 0xe1, 0xee, 0xe7, 0xe8, 0x06, 0x06, 0xea, 0x10, 0x3c, 0xde,
  0xd5, 0xd8, 0xb7, 0x01, 0xc3, 0x05, 0xdd, 0x7f, 0x1e, 0x47, 0x21, 0xeb,
  0x28, 0xff, 0xee, 0xba, 0x0a, 0xe7, 0xd7, 0xd4, 0xd3, 0xfb, 0x16, 0x16,
  0xea, 0xfc, 0x0f, 0x02, 0x08, 0x20, 0x11, 0x0c, 0x2e, 0x0a, 0xf8, 0xf3,
  0x1d, 0x11, 0x12, 0xf2, 0x0a, 0x0a, 0xe0, 0xfd, 0x0a, 0x16, 0xfb, 0x0d,
  0xfd, 0x05, 0x78, 0xe8, 0xde, 0x21, 0x08, 0x81, 0xf2, 0x53, 0xdf, 0x29,
  0x9b, 0x01, 0xee, 0x31, 0x01, 0x04, 0x1c, 0xec, 0xde, 0xfa, 0xf9, 0xee,
  0x04, 0x29, 0x0a, 0x05, 0x4a, 0x4b, 0xe3, 0xc9, 0x12, 0x0c, 0x08, 0x07,
  0x23, 0x47, 0x31, 0x2d, 0x47, 0xe4, 0xf1, 0x11, 0x2e, 0xed, 0x22, 0xba,
  0xfc, 0xee, 0xfc, 0x01, 0x3d, 0x07, 0x10, 0xf7, 0x02, 0x1e, 0x13, 0xd9,
  0xf8, 0x36, 0x17, 0xe9, 0x08, 0xe2, 0x1e, 0xb6, 0x06, 0x02, 0xed, 0x9d,
  0x16, 0x30, 0x0a, 0x01, 0x81, 0xb0, 0x07, 0xcd, 0xe3, 0xd8, 0x24, 0x3e,
  0xee, 0xe2, 0x20, 0xf5, 0xe3, 0xfd, 0xef, 0xde, 0x3d, 0xff, 0xf5, 0xf6,
  0x0a, 0xc4, 0x36, 0x32, 0x19, 0x3b, 0xe7, 0x21, 0xf8, 0xd3, 0x03, 0x1b,
  0xec, 0xe4, 0x0f, 0xc8, 0xd0, 0x0a, 0xfa, 0xd6, 0xe7, 0xd7, 0x0a, 0x02,
  0x00, 0x13, 0xf6, 0x19, 0x09, 0xc4, 0x19, 0x17, 0xeb, 0xfb, 0x1e, 0x01,
  0xee, 0x06, 0xfe, 0xe7, 0xf2, 0x3c, 0xf1, 0xf6, 0x49, 0xf5, 0x0a, 0x14,
  0xce, 0x41, 0x81, 0xc3, 0xcd, 0x02, 0xfc, 0x71, 0x00, 0xf8, 0xfa, 0x14,
  0x19, 0x1e, 0xd0, 0x36, 0xff, 0x32, 0xd8, 0xde, 0xdc, 0xdf, 0x2a, 0x32,
  0xca, 0xcd, 0xed, 0xfd, 0x2b, 0x43, 0x3a, 0xd9, 0x7f, 0x13, 0xda, 0xdf,
  0x16, 0x11, 0x1a, 0x21, 0x0a, 0x0a, 0xb4, 0x09, 0xf4, 0x0b, 0xc2, 0x48,
  0xc8, 0x17, 0x06, 0xae, 0x0b, 0xcd, 0xf4, 0x8b, 0x19, 0x4c, 0x03, 0x55,
  0xc2, 0x1b, 0x03, 0x0c, 0xe4, 0x15, 0xdd, 0x04, 0xbe, 0xed, 0x0a, 0x50,
  0xfc, 0x30, 0x1f, 0x0f, 0xf6, 0x09, 0xfa, 0xde, 0x0e, 0x17, 0xdc, 0x0a,
  0xdd, 0x24, 0xf8, 0xf4, 0xfb, 0x3e, 0xfa, 0xa7, 0xf4, 0xec, 0xbb, 0x4b,
  0xe2, 0xfc, 0x06, 0x2f, 0xeb, 0xe9, 0xb4, 0x16, 0xd9, 0xae, 0xf4, 0xd5,
  0x11, 0xf1, 0xe8, 0x9c, 0xdd, 0xfa, 0xfa, 0x1e, 0x08, 0x01, 0xfb, 0x25,
  0xfd, 0xb3, 0xf5, 0xef, 0x14, 0x06, 0xf1, 0x1a, 0xf8, 0x06, 0x08, 0x7f,
  0x12, 0x01, 0xed, 0x04, 0xfc, 0xfa, 0x01, 0xff, 0xf1, 0xed, 0xe3, 0x17,
  0x0a, 0x00, 0x1b, 0x28, 0x33, 0x28, 0x23, 0xed, 0x11, 0xed, 0x2b, 0xde,
  0xf7, 0xef, 0x08, 0x24, 0xf8, 0xc1, 0x0a, 0x11, 0x00, 0x10, 0xe4, 0x0a,
  0xfc, 0xe8, 0xec, 0xed, 0x0a, 0x14, 0xe9, 0xbb, 0xe8, 0x26, 0xfe, 0x00,
  0xed, 0x29, 0xe0, 0x54, 0xf5, 0xe0, 0xfe, 0x01, 0xdf, 0xf6, 0x04, 0xef,
  0x26, 0x72, 0x31, 0x21, 0xd2, 0x11, 0x11, 0xd9, 0x81, 0x17, 0xe9, 0x1c,
  0xf6, 0x38, 0x15, 0x40, 0x02, 0x49, 0x04, 0xf9, 0xd6, 0xee, 0xd5, 0xdb,
  0x40, 0xa4, 0xe8, 0xdd, 0x15, 0xd4, 0xf1, 0x02, 0xb7, 0xec, 0x43, 0x48,
  0xdb, 0xf5, 0xde, 0xf4, 0xbf, 0xe4, 0xda, 0x22, 0xef, 0xf7, 0xe5, 0xac,
  0xc2, 0xc6, 0xf2, 0x3e, 0x4b, 0xe7, 0x1d, 0xf4, 0x32, 0xda, 0xee, 0xba,
  0x0f, 0xca, 0x1a, 0xe2, 0x3b, 0x34, 0x5e, 0x28, 0x0c, 0x15, 0xca, 0xe3,
  0x81, 0xc3, 0x11, 0x1f, 0xec, 0xca, 0xf7, 0xfc, 0x04, 0xd4, 0xf5, 0x14,
  0xf8, 0x04, 0xcf, 0x50, 0xed, 0x0a, 0x10, 0xfc, 0xfb, 0x0e, 0x02, 0x1c,
  0x4b, 0x03, 0xe6, 0x04, 0x7f, 0xea, 0x01, 0xfb, 0x06, 0x05, 0x8e, 0xf8,
  0x14, 0xc3, 0xfb, 0x19, 0xfe, 0x20, 0x15, 0xe1, 0xd3, 0x0a, 0xf4, 0xb6,
  0x07, 0x17, 0xf0, 0x0c, 0x86, 0x1e, 0xf5, 0xf1, 0x1b, 0x14, 0x03, 0xde,
  0xe3, 0xeb, 0xe9, 0x10, 0x08, 0x2c, 0x04, 0xec, 0x11, 0x47, 0xdf, 0x9c,
  0xe9, 0x60, 0x3e, 0xed, 0xcb, 0xcb, 0xab, 0xa8, 0xe2, 0xb4, 0xc3, 0xda,
  0x0a, 0xeb, 0x30, 0xe8, 0x07, 0xf1, 0x35, 0x30, 0xe6, 0x15, 0xda, 0x15,
  0xd4, 0xdb, 0xc8, 0x2c, 0xc2, 0xd1, 0xdb, 0xe0, 0xf5, 0xae, 0xed, 0xfc,
  0x3c, 0x0b, 0x44, 0xc4, 0x07, 0x53, 0xff, 0xe6, 0xd5, 0x20, 0xc4, 0xc9,
  0x47, 0xe0, 0xf4, 0x1e, 0x48, 0xf2, 0xdd, 0xad, 0x00, 0xc9, 0x36, 0x0e,
  0x23, 0x62, 0x46, 0x81, 0xfb, 0x10, 0xf9, 0x0a, 0xe8, 0x51, 0xf8, 0x0b,
  0xf1, 0xdf, 0x0c, 0xdc, 0xfb, 0xfe, 0xb8, 0x28, 0x09, 0xf3, 0xfc, 0xe5,
  0x60, 0xfd, 0xd9, 0xe9, 0xfe, 0xed, 0xac, 0xd6, 0x38, 0xf5, 0x27, 0xba,
  0x81, 0x16, 0x05, 0xf6, 0xee, 0xfa, 0xd3, 0x32, 0x04, 0xde, 0xed, 0xf9,
  0x07, 0x12, 0x13, 0xd7, 0xee, 0x31, 0x35, 0x2d, 0xc2, 0xf4, 0x31, 0xe0,
  0x00, 0xf2, 0xed, 0xe8, 0xe0, 0x4d, 0x0b, 0x21, 0xf6, 0x95, 0xea, 0xbd,
  0x4b, 0x32, 0xc8, 0x03, 0xfc, 0xaf, 0xd0, 0xf0, 0xc3, 0xfe, 0x15, 0xda,
  0x19, 0x31, 0x1d, 0x55, 0xb3, 0x81, 0xe3, 0xdd, 0x02, 0xcd, 0xc7, 0xd2,
  0x3a, 0x30, 0x59, 0x1e, 0xeb, 0x86, 0xf0, 0xaa, 0xc6, 0x12, 0xaa, 0xc7,
  0x0d, 0x4e, 0x10, 0x0f, 0x30, 0x07, 0x18, 0x6b, 0x66, 0x14, 0xf2, 0x06,
  0xe6, 0xbc, 0xd3, 0x0d, 0x20, 0x36, 0xdb, 0xd8, 0xeb, 0x38, 0x26, 0x5b,
  0xe2, 0x14, 0x43, 0x28, 0x28, 0x27, 0xdd, 0xfd, 0xe5, 0xde, 0xc6, 0xfd,
  0xfa, 0xa4, 0xf5, 0xec, 0x1c, 0x00, 0x00, 0x05, 0x5f, 0xd9, 0xf2, 0xc8,
  0xf0, 0xf8, 0xb5, 0x43, 0x37, 0xf0, 0x26, 0x00, 0xeb, 0xdf, 0xef, 0x13,
  0x09, 0x05, 0x1d, 0xdc, 0xe5, 0xfb, 0xf9, 0xf3, 0x81, 0x12, 0x23, 0xfd,
  0xeb, 0xe2, 0xf1, 0xea, 0xf8, 0x83, 0xd2, 0xe2, 0x14, 0xef, 0xfa, 0xe2,
  0x6a, 0x14, 0x93, 0xa6, 0xd4, 0xc9, 0xfd, 0xb2, 0xc8, 0x92, 0x0e, 0xfc,
  0xfb, 0xfa, 0x04, 0xdd, 0xd8, 0xbb, 0xe3, 0xfc, 0xc3, 0xf6, 0x15, 0x48,
  0xde, 0x15, 0xde, 0x49, 0xef, 0xdc, 0x3a, 0x3f, 0x1f, 0xe5, 0xdf, 0xf2,
  0x1d, 0xcc, 0x00, 0x2e, 0xe3, 0x0d, 0x32, 0xf6, 0xdc, 0xe1, 0x33, 0xd9,
  0xf9, 0xfc, 0xbe, 0xdf, 0xe4, 0xdc, 0xef, 0x03, 0x57, 0x13, 0x13, 0xed,
  0x0e, 0xe2, 0xe9, 0xcf, 0x09, 0xd9, 0x81, 0xf7, 0xe7, 0xbe, 0xc1, 0x3c,
  0x19, 0x25, 0xd1, 0xdc, 0x38, 0xc3, 0x03, 0xec, 0x81, 0x0c, 0x17, 0xfc,
  0xd8, 0xf4, 0xde, 0xf8, 0xda, 0x0a, 0x0d, 0x05, 0xed, 0xef, 0xee, 0x15,
  0x1b, 0xcc, 0xad, 0x30, 0xbb, 0x2d, 0x21, 0x0c, 0xf9, 0xc8, 0xff, 0x3e,
  0xe7, 0x4a, 0xdc, 0x12, 0x79, 0xfa, 0xfd, 0x51, 0xc9, 0x7f, 0x41, 0xd1,
  0xfb, 0x28, 0xef, 0x23, 0xf9, 0x18, 0xec, 0x01, 0xe5, 0xe8, 0xd7, 0x22,
  0x10, 0x09, 0xff, 0x0b, 0x1d, 0xf7, 0xf2, 0x0a, 0x21, 0x3b, 0x26, 0xf9,
  0xe2, 0xf6, 0xc8, 0x13, 0x1f, 0xed, 0xe4, 0xa9, 0x08, 0x18, 0xfe, 0xfb,
  0xdf, 0xff, 0x06, 0xe9, 0x12, 0xda, 0x17, 0x00, 0x1a, 0x22, 0x1b, 0xd6,
  0x0a, 0x01, 0xf2, 0x11, 0xfe, 0xa9, 0x4d, 0x0e, 0x2e, 0x04, 0xe1, 0x11,
  0xf2, 0xb9, 0x4e, 0xf3, 0xfc, 0x26, 0xe3, 0x07, 0xe3, 0x02, 0xf5, 0x1e,
  0xd0, 0x81, 0x13, 0x03, 0x0c, 0x15, 0x5f, 0xed, 0x07, 0xeb, 0x0d, 0xe5,
  0x23, 0xf8, 0x13, 0xe1, 0x03, 0xf4, 0x04, 0x1f, 0xf1, 0xd1, 0x1c, 0x1c,
  0xda, 0x13, 0xef, 0x11, 0xeb, 0xd7, 0xe4, 0xe9, 0xf0, 0xec, 0xdb, 0xe6,
  0x03, 0x03, 0x02, 0x13, 0xfb, 0xc8, 0x03, 0xfd, 0xfc, 0xb5, 0x7f, 0xde,
  0x1c, 0xcf, 0xfb, 0x01, 0x26, 0xca, 0x48, 0xff, 0xfa, 0x1e, 0x0f, 0xe5,
  0x9f, 0xec, 0x0b, 0xec, 0xf7, 0xde, 0x07, 0x0e, 0x14, 0xe6, 0xf3, 0xff,
  0x12, 0xbe, 0x7f, 0x34, 0xed, 0x33, 0x55, 0xfa, 0x0d, 0xf4, 0xe4, 0x2e,
  0x70, 0x12, 0x01, 0x40, 0x77, 0x1a, 0xe5, 0xfb, 0xf1, 0x0c, 0xbc, 0xb9,
  0x1d, 0xcc, 0xf6, 0xd4, 0x20, 0x25, 0xf5, 0xeb, 0xc8, 0xdd, 0xf0, 0xbf,
  0x2f, 0xca, 0xbf, 0x32, 0xb1, 0x16, 0x29, 0xf6, 0xec, 0x61, 0xf3, 0x01,
  0x27, 0xf3, 0xf7, 0xf6, 0xec, 0x19, 0xdc, 0xf2, 0x2f, 0x3f, 0x1d, 0xcd,
  0x0a, 0xd1, 0xfa, 0xf8, 0x27, 0x14, 0x02, 0x01, 0xef, 0x2a, 0xfb, 0xf9,
  0xf7, 0xf5, 0xed, 0xf3, 0xed, 0x12, 0xe4, 0xde, 0x01, 0xe5, 0x01, 0xeb,
  0x01, 0x00, 0xee, 0x26, 0xf8, 0x0a, 0x2a, 0xf8, 0xf8, 0xec, 0xf0, 0x06,
  0xff, 0x03, 0xe3, 0xc2, 0xf4, 0x0d, 0x07, 0x2c, 0x1d, 0x0b, 0x0e, 0x1d,
  0x12, 0xed, 0x03, 0x26, 0xf4, 0xdc, 0xfa, 0x7f, 0xfc, 0x2f, 0xf3, 0x14,
  0x0b, 0xf1, 0x07, 0x93, 0xe0, 0xc7, 0x40, 0xdb, 0xf6, 0x9c, 0xc5, 0x13,
  0x65, 0xdd, 0xa9, 0xb1, 0x12, 0xbb, 0xe0, 0xf7, 0xc2, 0x22, 0xab, 0x1b,
  0x30, 0xd9, 0x3b, 0x5f, 0xf9, 0xf4, 0x04, 0xf4, 0xd2, 0xf1, 0xb6, 0xc5,
  0xe0, 0xb2, 0xc7, 0xc6, 0x81, 0x22, 0x84, 0xab, 0xd0, 0xf2, 0x67, 0x3b,
  0xea, 0x8f, 0x1e, 0xce, 0x11, 0x2e, 0x92, 0x63, 0xd1, 0xc3, 0x38, 0xf7,
  0xca, 0xbc, 0x4c, 0x05, 0x36, 0x22, 0x0b, 0xc0, 0xc8, 0x24, 0xe0, 0xf8,
  0x88, 0xfc, 0xd5, 0xff, 0xf9, 0x09, 0xeb, 0x00, 0xfe, 0x23, 0x20, 0xe8,
  0x34, 0x00, 0x17, 0x16, 0x0c, 0xf6, 0x06, 0x1e, 0x05, 0x04, 0x04, 0x88,
  0xe2, 0xf1, 0x03, 0x1b, 0xfa, 0x81, 0x17, 0x0e, 0x17, 0x05, 0x23, 0xd5,
  0xa8, 0xf0, 0xee, 0xeb, 0x0b, 0x1d, 0xd6, 0x08, 0x0e, 0x14, 0xe0, 0xec,
  0x2a, 0xe7, 0xe1, 0xfa, 0x18, 0xeb, 0x2a, 0x04, 0x17, 0xed, 0x09, 0x3a,
  0xf1, 0x20, 0xf2, 0xc8, 0xe9, 0xd8, 0x0a, 0x52, 0x37, 0x41, 0xff, 0xed,
  0xd9, 0xba, 0xf0, 0xf2, 0xe2, 0xb7, 0xe5, 0x7f, 0xe1, 0x0d, 0xda, 0x1d,
  0x0c, 0xc7, 0x4a, 0x33, 0x1a, 0x2f, 0xdb, 0x06, 0x2f, 0xae, 0x32, 0x3c,
  0x08, 0x0c, 0xf0, 0x90, 0xea, 0xab, 0x57, 0xec, 0x02, 0xcc, 0xf2, 0x0e,
  0x37, 0x12, 0x2c, 0xdb, 0x14, 0x11, 0x2a, 0xe3, 0xd4, 0x08, 0xcc, 0xce,
  0x09, 0xd3, 0x17, 0xa5, 0xd6, 0x34, 0xc2, 0xf5, 0xfc, 0xcc, 0x3f, 0x17,
  0xcc, 0x25, 0xef, 0x10, 0x26, 0x21, 0x0d, 0xfb, 0x7b, 0x1b, 0xe9, 0xed,
  0x19, 0x2b, 0x15, 0x05, 0x07, 0xf6, 0xcf, 0x07, 0xf8, 0x22, 0xb7, 0x2d,
  0xf8, 0x05, 0x09, 0xdc, 0x34, 0xfc, 0xef, 0xe4, 0x2f, 0x7f, 0xf8, 0x38,
  0xea, 0x01, 0xfc, 0xfa, 0x16, 0xd4, 0xb2, 0xda, 0xd9, 0xd4, 0x42, 0x37,
  0xe4, 0x2f, 0x26, 0x0f, 0x1d, 0x43, 0xef, 0xfb, 0xf5, 0x12, 0xed, 0x1c,
  0x01, 0x35, 0xea, 0x2d, 0xf8, 0xd7, 0xdc, 0x0a, 0x04, 0xc3, 0x03, 0xf8,
  0x16, 0xfa, 0x06, 0x03, 0xff, 0x86, 0x04, 0xc7, 0x05, 0x0d, 0xe8, 0x0f,
  0x1f, 0xf8, 0x44, 0x01, 0x06, 0xe2, 0xf8, 0xfd, 0x1f, 0xff, 0x0a, 0x81,
  0xde, 0x07, 0xfd, 0xf6, 0xf9, 0x0d, 0x26, 0x04, 0xe9, 0x31, 0xe9, 0xf8,
  0x08, 0xa0, 0xdd, 0xf4, 0x1c, 0xdf, 0x0b, 0x37, 0x1b, 0xfc, 0xb7, 0x88,
  0xeb, 0x31, 0x5a, 0x28, 0xf6, 0x01, 0x3b, 0x14, 0x5d, 0x3d, 0xfb, 0x19,
  0x2b, 0xe9, 0x08, 0xd0, 0xd8, 0xb1, 0x2a, 0x29, 0xfc, 0x02, 0xfc, 0xf1,
  0xfc, 0x05, 0x02, 0x08, 0xfc, 0xee, 0xed, 0x00, 0x11, 0xfa, 0xe9, 0xec,
  0x0f, 0xc2, 0xf1, 0x08, 0x01, 0xd7, 0x2d, 0xd3, 0x02, 0x81, 0x2b, 0xd2,
  0xef, 0x1c, 0x3c, 0x0b, 0xdf, 0xff, 0x2f, 0xf2, 0xa0, 0xde, 0x15, 0xed,
  0xf4, 0xec, 0x13, 0x29, 0xf3, 0x39, 0x19, 0x8b, 0x14, 0xae, 0x7f, 0x6c,
  0x06, 0xe3, 0x35, 0x15, 0x18, 0xfa, 0x4a, 0x0b, 0x1c, 0xfa, 0x00, 0xd5,
  0xa3, 0x16, 0x26, 0x2a, 0x2b, 0x1c, 0x6b, 0x1c, 0xfa, 0x23, 0x81, 0x26,
  0x10, 0xf3, 0x48, 0x03, 0xff, 0x11, 0x13, 0x22, 0x01, 0x6b, 0xd3, 0x25,
  0x30, 0xea, 0xcb, 0x34, 0x71, 0x10, 0xc6, 0xed, 0x28, 0x17, 0x55, 0xf1,
  0xf2, 0x09, 0x4e, 0x38, 0xd6, 0xe7, 0x09, 0x4e, 0xf2, 0xf4, 0x4a, 0x83,
  0x2d, 0x18, 0xff, 0xb6, 0x49, 0xb4, 0x11, 0x1d, 0xf3, 0xe0, 0xf4, 0xc0,
  0xf4, 0xaf, 0x44, 0x07, 0x79, 0x03, 0xed, 0xdf, 0xfd, 0x01, 0x05, 0x51,
  0xd7, 0x24, 0xe4, 0x30, 0x03, 0x3c, 0x03, 0x02, 0x0e, 0x11, 0xe8, 0x15,
  0xd7, 0xf9, 0xe6, 0xba, 0xac, 0xcf, 0x38, 0x12, 0xc4, 0x20, 0x1e, 0xc7,
  0x6f, 0x45, 0x41, 0x7f, 0xe2, 0x54, 0xc7, 0xe9, 0x2b, 0xf7, 0xe2, 0xfe,
  0x13, 0x17, 0xee, 0xe1, 0xcc, 0x29, 0xfe, 0xe7, 0xfd, 0x45, 0xed, 0x9b,
  0x02, 0x03, 0xb7, 0x60, 0xe8, 0xf0, 0x17, 0x5b, 0xed, 0xff, 0xa0, 0x00,
  0xd9, 0x86, 0xf3, 0x96, 0x07, 0xea, 0xe0, 0x94, 0xd6, 0x00, 0xf4, 0x02,
  0xf5, 0xfe, 0xfe, 0x23, 0x18, 0xb2, 0xf9, 0xec, 0x1a, 0xee, 0xdd, 0x2e,
  0xf9, 0x04, 0x0a, 0x7f, 0x0b, 0x0d, 0xf4, 0xfc, 0xf2, 0xf1, 0xfe, 0xfc,
  0xf0, 0xd3, 0xdc, 0x19, 0xf4, 0xdf, 0x99, 0x34, 0xeb, 0x0d, 0xb3, 0x3c,
  0xbe, 0xdf, 0xf5, 0x10, 0x1a, 0x0e, 0x43, 0xf8, 0x6d, 0x1c, 0xb2, 0xfe,
  0x6b, 0x13, 0x29, 0xda, 0xf1, 0x15, 0xb8, 0xea, 0x24, 0xb9, 0x18, 0x18,
  0x21, 0x16, 0x0c, 0xa2, 0xdb, 0xe4, 0xe2, 0xb7, 0xf6, 0x25, 0xfb, 0x1a,
  0x81, 0x11, 0x0f, 0xe3, 0xd9, 0x62, 0xf2, 0xfb, 0xc2, 0x01, 0x03, 0x17,
  0x11, 0xe6, 0xe2, 0xcd, 0x39, 0xd6, 0xd9, 0xdb, 0xe1, 0x0c, 0x0a, 0x42,
  0xb9, 0x56, 0x1a, 0x23, 0xf9, 0x30, 0xd2, 0x14, 0x16, 0xa6, 0xf2, 0x01,
  0xb7, 0xfa, 0x22, 0x22, 0x05, 0xc7, 0x11, 0xdd, 0xd5, 0x07, 0xba, 0xff,
  0x60, 0xfa, 0x49, 0xf1, 0x03, 0xd1, 0xe5, 0x1e, 0x1c, 0x2a, 0x16, 0xdb,
  0xf2, 0x04, 0x00, 0xe5, 0x0a, 0x0c, 0xfb, 0xe1, 0x0e, 0xd6, 0x1c, 0xef,
  0xe5, 0xe0, 0xd8, 0x00, 0xef, 0xc9, 0xdb, 0x32, 0xdf, 0xce, 0x1b, 0x81,
  0xf6, 0x81, 0xbc, 0x32, 0xc7, 0xef, 0x03, 0xff, 0xee, 0x35, 0xf2, 0x0b,
  0xe9, 0xf3, 0xf9, 0x0a, 0x0a, 0x09, 0x1b, 0xc3, 0xfa, 0x08, 0x0e, 0xf6,
  0xf9, 0x16, 0x10, 0xaf, 0x01, 0xf6, 0xf5, 0x24, 0x12, 0xfb, 0x26, 0xf8,
  0xa0, 0x05, 0x13, 0x20, 0xd8, 0x29, 0xd4, 0xee, 0x2b, 0x04, 0xd9, 0x3c,
  0x0b, 0xe8, 0xf8, 0xe4, 0x16, 0xf5, 0x26, 0x15, 0x03, 0x09, 0xfc, 0xed,
  0xed, 0x2a, 0xce, 0x42, 0xfa, 0x02, 0x52, 0x1d, 0x1e, 0x20, 0x4d, 0xd8,
  0x1f, 0xe1, 0x14, 0xef, 0x13, 0x09, 0xd6, 0x4b, 0xb5, 0xd7, 0x18, 0xec,
  0x07, 0xee, 0xe7, 0xe8, 0xf0, 0xde, 0x24, 0x0a, 0xff, 0xf0, 0x10, 0xc2,
  0xda, 0x2b, 0x04, 0x07, 0x36, 0x0b, 0x17, 0x22, 0x06, 0x81, 0x37, 0xf2,
  0xe2, 0x10, 0x04, 0x0b, 0x19, 0xed, 0x43, 0x0d, 0xff, 0x28, 0xc9, 0x02,
  0xa6, 0xfa, 0xb9, 0x17, 0x1f, 0x28, 0x30, 0x23, 0xde, 0x11, 0xb8, 0xf8,
  0xb0, 0xe0, 0xf3, 0xd9, 0xda, 0x4b, 0x00, 0x9f, 0xa9, 0xcb, 0x92, 0x57,
  0x09, 0xf2, 0x0d, 0x5f, 0xdb, 0x00, 0xad, 0x40, 0xb2, 0xa4, 0xe2, 0xc3,
  0x24, 0xd8, 0xef, 0xa4, 0xe7, 0xe3, 0xf9, 0x2c, 0xef, 0x1e, 0x0a, 0x38,
  0xf9, 0xac, 0x0f, 0xe6, 0x21, 0x09, 0xe3, 0x46, 0xe4, 0xfa, 0x0c, 0x7f,
  0x38, 0x07, 0xe1, 0xf8, 0xf7, 0xe5, 0xf9, 0xe5, 0xe4, 0xe9, 0xd4, 0x24,
  0x08, 0xff, 0x16, 0x05, 0xfe, 0xf6, 0x39, 0x23, 0x25, 0xb3, 0x0c, 0x20,
  0x27, 0xf6, 0x00, 0xd3, 0xeb, 0xdc, 0xf2, 0x1d, 0xe5, 0x05, 0x19, 0xd1,
  0x08, 0x29, 0x34, 0xfc, 0xe3, 0x25, 0xdf, 0x19, 0xd9, 0xf6, 0xf9, 0xb3,
  0xeb, 0xfc, 0x00, 0x0e, 0xfd, 0xe3, 0x12, 0xfe, 0xf0, 0x91, 0x15, 0xf2,
  0x04, 0x60, 0x34, 0xf1, 0xdd, 0x19, 0x24, 0x05, 0x81, 0x01, 0x06, 0x17,
  0xf8, 0xf0, 0x19, 0xff, 0x81, 0xdc, 0x3b, 0xc2, 0xdc, 0xbd, 0x0b, 0xf5,
  0xee, 0xef, 0x0a, 0x0b, 0xef, 0xf8, 0x02, 0xf7, 0xde, 0x07, 0x17, 0xf5,
  0xec, 0x13, 0xfa, 0x5c, 0xe8, 0xfc, 0x03, 0x46, 0x25, 0x08, 0xf2, 0x06,
  0x13, 0xac, 0x12, 0x1d, 0xf0, 0x0f, 0x22, 0xd0, 0xb0, 0x1b, 0x0b, 0xd2,
  0xd1, 0x0b, 0xc3, 0x06, 0xfd, 0xe8, 0xe2, 0xdc, 0x31, 0x0e, 0x0b, 0xd7,
  0x0c, 0xe8, 0xd8, 0xdb, 0x33, 0xf9, 0xbf, 0xe4, 0x21, 0x1f, 0x18, 0xf2,
  0x24, 0xc3, 0x25, 0x06, 0xee, 0x44, 0x48, 0xe2, 0x92, 0xba, 0xf5, 0x58,
  0xf5, 0xdf, 0x0a, 0xe0, 0xd9, 0xc3, 0x98, 0x59, 0xeb, 0x15, 0x25, 0xfc,
  0xe9, 0xba, 0x03, 0xb4, 0xe4, 0xa7, 0x41, 0x5c, 0xdf, 0x29, 0x81, 0xd3,
  0xa0, 0xca, 0x2e, 0x31, 0x03, 0x9e, 0x27, 0xf3, 0x30, 0xe7, 0x26, 0xfd,
  0x2c, 0xc6, 0x1c, 0x07, 0xf7, 0x63, 0x0e, 0x3e, 0xc4, 0x01, 0x06, 0xed,
  0xfd, 0x1e, 0xbe, 0x21, 0x39, 0x34, 0x07, 0x10, 0xea, 0xfe, 0x41, 0x11,
  0x25, 0x0d, 0xe8, 0xfb, 0x1e, 0xe9, 0xfd, 0xaa, 0x63, 0xdc, 0xf3, 0xc6,
  0xe9, 0x12, 0xe2, 0x1b, 0xf3, 0x04, 0x37, 0x07, 0xda, 0x2e, 0x15, 0xde,
  0x21, 0x1b, 0x12, 0x0d, 0x28, 0xb5, 0x29, 0x15, 0xab, 0x22, 0x23, 0xec,
  0xd3, 0xfa, 0x3e, 0xc0, 0xd9, 0x0f, 0x15, 0x19, 0x01, 0x35, 0x81, 0xe8,
  0xca, 0x9b, 0x52, 0xd4, 0xf7, 0xc1, 0x33, 0xe6, 0x16, 0x1e, 0xfa, 0xf5,
  0x27, 0xd5, 0x22, 0xea, 0xd9, 0x08, 0xf1, 0x1f, 0xf0, 0xe5, 0x13, 0x0a,
  0xe0, 0x17, 0xec, 0xe8, 0xf3, 0xe7, 0x15, 0x21, 0x05, 0x18, 0xf8, 0xdf,
  0xe7, 0xf9, 0x09, 0x0b, 0xf5, 0x12, 0x05, 0x7f, 0xfc, 0xa3, 0x2e, 0xca,
  0x18, 0xdf, 0x09, 0x12, 0xff, 0x2e, 0x3c, 0xef, 0xd2, 0x29, 0x0d, 0x16,
  0xf1, 0xd2, 0xd9, 0xf4, 0xcd, 0xe3, 0x42, 0x38, 0xec, 0x07, 0x26, 0xc8,
  0xa4, 0xc8, 0x17, 0x7f, 0xfe, 0x29, 0xb0, 0x19, 0x03, 0xfd, 0x39, 0xce,
  0x2f, 0x0b, 0xfd, 0xfb, 0x79, 0xc5, 0x0f, 0x12, 0x09, 0x10, 0x44, 0x02,
  0x11, 0x2e, 0x12, 0x26, 0x00, 0xe7, 0xd7, 0x23, 0x0e, 0xf1, 0x2f, 0x8b,
  0x12, 0x1b, 0xf5, 0xa9, 0x97, 0xfc, 0x0c, 0xe6, 0x4b, 0x08, 0xfe, 0xaa,
  0x4a, 0x6f, 0x2a, 0x50, 0xe1, 0xa0, 0x28, 0x0c, 0xec, 0x1c, 0xc2, 0x0d,
  0x07, 0xf5, 0x18, 0xf6, 0x0a, 0x26, 0xf6, 0x24, 0x2d, 0x36, 0x02, 0xd2,
  0xba, 0xc7, 0x0a, 0x43, 0xca, 0xf5, 0xa7, 0xc6, 0xec, 0xf2, 0xdd, 0xf6,
  0x0c, 0xc5, 0xdc, 0xf3, 0x23, 0xf8, 0xe7, 0xe7, 0xdd, 0x04, 0xfc, 0x06,
  0x16, 0xf6, 0x07, 0xed, 0x1d, 0x71, 0xe5, 0x15, 0x52, 0xeb, 0x07, 0x66,
  0xef, 0x31, 0x81, 0xc5, 0xe5, 0x08, 0xda, 0x19, 0xfa, 0x1c, 0xf3, 0xf6,
  0xe3, 0x0c, 0xc4, 0x0a, 0x05, 0x1d, 0xe6, 0x12, 0xd2, 0x28, 0xe5, 0xf7,
  0xf7, 0x3e, 0xfb, 0xa2, 0xf4, 0xec, 0xc1, 0x63, 0xe6, 0x10, 0x00, 0x23,
  0xee, 0xf3, 0xbb, 0x2b, 0xd7, 0xb8, 0xe3, 0xad, 0x18, 0xea, 0xe9, 0x81,
  0xde, 0xf0, 0xf8, 0x10, 0x1e, 0xf9, 0xf2, 0x23, 0x0a, 0x93, 0xfc, 0xf8,
  0x0d, 0x0d, 0xdc, 0x31, 0xff, 0x0a, 0xf9, 0x6c, 0x08, 0x0c, 0xf4, 0x0a,
  0x06, 0xf2, 0xfd, 0xfa, 0xf3, 0xd8, 0xe0, 0x2b, 0xcf, 0x23, 0x72, 0x48,
  0xdb, 0x1b, 0xca, 0xd4, 0x0b, 0xe1, 0xea, 0xe4, 0x81, 0xd6, 0x28, 0x2a,
  0xa0, 0xa4, 0x8c, 0xbd, 0x1e, 0x0e, 0x33, 0x63, 0xa8, 0x3d, 0x30, 0x07,
  0xe7, 0xf4, 0x2e, 0xfc, 0xec, 0xae, 0x1f, 0xbd, 0xd4, 0xf0, 0xee, 0xa9,
  0xe8, 0x9c, 0x5d, 0x5a, 0xd7, 0xe3, 0x3e, 0x13, 0xcf, 0xaa, 0x11, 0x36,
  0xec, 0x89, 0x71, 0x56, 0xe5, 0x70, 0xeb, 0x5a, 0x63, 0xaf, 0xd1, 0xd2,
  0xe2, 0xc1, 0x12, 0x00, 0x9b, 0xf9, 0x07, 0xe6, 0x12, 0x44, 0x2e, 0xc5,
  0xcd, 0xc1, 0xb6, 0x1f, 0xb5, 0xf5, 0x0a, 0x22, 0xdd, 0x0e, 0xcc, 0x34,
  0x01, 0xbe, 0x76, 0xda, 0x30, 0xd8, 0xda, 0xe3, 0x09, 0xe3, 0x1f, 0x36,
  0xb8, 0x05, 0x1c, 0x1a, 0xdd, 0xc9, 0x0c, 0xdd, 0x21, 0xf1, 0x95, 0xfb,
  0xf9, 0xda, 0x09, 0x19, 0x08, 0x17, 0x10, 0xe9, 0xf9, 0xf1, 0xe1, 0xbd,
  0xf4, 0xda, 0x81, 0x2a, 0x17, 0x20, 0xcc, 0x06, 0x29, 0x14, 0x02, 0xff,
  0xfe, 0x12, 0xef, 0x0d, 0x1d, 0x12, 0xfa, 0x2b, 0x2b, 0x1b, 0xc6, 0xbb,
  0x7f, 0xea, 0xef, 0x11, 0x05, 0xef, 0x08, 0xca, 0x1a, 0xe2, 0xe1, 0x05,
  0xe8, 0x04, 0x16, 0xb3, 0x93, 0xf3, 0xed, 0xcb, 0xea, 0x0e, 0x1c, 0x6c,
  0xe7, 0xf2, 0xf1, 0x4f, 0xe7, 0x11, 0x22, 0xed, 0xc9, 0xdf, 0xce, 0x07,
  0xfc, 0x4d, 0xd5, 0xe7, 0x41, 0x98, 0xee, 0xf0, 0x96, 0x5e, 0x71, 0xe5,
  0x9a, 0x2d, 0x3e, 0xb3, 0xf0, 0xe9, 0xbc, 0x81, 0x8a, 0x12, 0x92, 0x7d,
  0xb0, 0xe6, 0xf6, 0xb6, 0x6e, 0x44, 0xc6, 0xb7, 0xa8, 0xb8, 0x2f, 0x17,
  0x07, 0x20, 0x4f, 0xff, 0x35, 0x89, 0x47, 0x54, 0x21, 0x43, 0xcd, 0x3e,
  0xde, 0xf8, 0xb4, 0x69, 0xb5, 0xad, 0x24, 0x71, 0x4f, 0x48, 0x3a, 0x60,
  0xf3, 0x5f, 0xf7, 0x0a, 0x48, 0x79, 0xd2, 0x5c, 0x73, 0xf1, 0x28, 0xf4,
  0xf0, 0xee, 0x15, 0x0f, 0xf4, 0xdd, 0xe2, 0xee, 0xf4, 0x03, 0x0f, 0x00,
  0x03, 0x07, 0xf5, 0x0e, 0x3f, 0xf3, 0xdc, 0x48, 0xf6, 0x0f, 0xfc, 0xf5,
  0xf5, 0x07, 0xa6, 0xf5, 0x02, 0xf6, 0x14, 0x11, 0xfb, 0x14, 0x0b, 0xf7,
  0x0c, 0x11, 0xf9, 0xfd, 0xde, 0xed, 0x04, 0x2c, 0xcc, 0x0b, 0x18, 0xfd,
  0xf7, 0x28, 0x0e, 0xc2, 0x04, 0x12, 0x12, 0xef, 0xf8, 0x0a, 0xf0, 0xf0,
  0x02, 0x7f, 0x00, 0xdd, 0x10, 0x14, 0xe8, 0x19, 0xe9, 0x2f, 0xfe, 0xe0,
  0x0a, 0x42, 0x0b, 0xa6, 0xe3, 0xee, 0x94, 0x50, 0xd2, 0xf8, 0x0b, 0x1f,
  0xf5, 0xf5, 0xa8, 0x21, 0xf9, 0xb7, 0xf4, 0xd5, 0x12, 0xee, 0xfa, 0x9d,
  0xe5, 0x09, 0xf6, 0x00, 0x0d, 0xdd, 0xfb, 0x1e, 0x18, 0xa5, 0x20, 0xf7,
  0x0f, 0xfd, 0xed, 0x2c, 0xf3, 0x09, 0x16, 0x7f, 0x02, 0x0b, 0xfd, 0x02,
  0xf0, 0x00, 0x01, 0xf9, 0xee, 0xc2, 0xe9, 0x11, 0xda, 0xad, 0xd7, 0x8a,
  0x9f, 0x09, 0x0c, 0x05, 0xe7, 0xf9, 0xee, 0x0c, 0xfe, 0x15, 0x0e, 0xfe,
  0x2d, 0x0a, 0x0e, 0x01, 0x4a, 0x10, 0x17, 0x40, 0x07, 0x10, 0x16, 0xeb,
  0xf2, 0x11, 0xf5, 0x16, 0xf0, 0xb5, 0x71, 0x08, 0xec, 0x21, 0x27, 0xe8,
  0xe3, 0x0c, 0xd9, 0xd9, 0xbe, 0x14, 0xd7, 0x01, 0x3f, 0x0f, 0xe3, 0xc7,
  0x6d, 0x23, 0xfd, 0xfb, 0xfe, 0xec, 0x09, 0x0e, 0x7f, 0x0b, 0xde, 0xef,
  0xe8, 0xaa, 0xf0, 0xf1, 0xe9, 0x9f, 0xcf, 0xdc, 0xfd, 0xbf, 0xbe, 0xae,
  0xe5, 0x1b, 0xe0, 0x7c, 0xfe, 0x1e, 0x1d, 0x1a, 0xe1, 0xf0, 0xca, 0x0a,
  0xdb, 0xed, 0xc9, 0x29, 0xeb, 0x06, 0x3b, 0xcc, 0xfa, 0xf3, 0xdf, 0xcd,
  0xcf, 0xdd, 0xcb, 0xd9, 0x13, 0x01, 0xfc, 0xe5, 0x0c, 0x07, 0xef, 0x20,
  0x0f, 0xcb, 0xe1, 0x47, 0x7f, 0x1d, 0xd9, 0x61, 0x34, 0xfd, 0x15, 0xff,
  0x11, 0xff, 0x5b, 0xb9, 0xdd, 0x32, 0xe4, 0x03, 0xf8, 0xcd, 0xec, 0x1f,
  0xce, 0x19, 0x1d, 0xf9, 0x0e, 0xfe, 0xf8, 0x35, 0x6d, 0x11, 0xe4, 0x27,
  0x07, 0x08, 0x22, 0x13, 0xf5, 0x0b, 0x81, 0xe2, 0x1e, 0xf7, 0xec, 0x32,
  0xcd, 0x41, 0xf3, 0xcd, 0x17, 0xeb, 0x01, 0xef, 0xf9, 0xfe, 0xfb, 0x34,
  0xdf, 0x3c, 0xed, 0xe3, 0x37, 0x70, 0xfd, 0x0a, 0xdd, 0xf2, 0x0f, 0x10,
  0xfe, 0x1f, 0xe3, 0xf2, 0xde, 0x5c, 0x16, 0x06, 0x09, 0x2a, 0xe5, 0x11,
  0xe3, 0x2c, 0xf9, 0xed, 0xf5, 0x22, 0x07, 0xa6, 0xff, 0xf0, 0xb7, 0x46,
  0xe4, 0xf6, 0x11, 0x41, 0xe7, 0xf3, 0xc0, 0x10, 0xe9, 0xad, 0xf6, 0xb5,
  0x16, 0xfb, 0xea, 0x9b, 0xf2, 0xfb, 0xf7, 0x20, 0x06, 0xf1, 0xfb, 0x24,
  0x0c, 0x92, 0x06, 0xf3, 0x13, 0xfd, 0xf4, 0x29, 0xf0, 0x09, 0x08, 0x7f,
  0xf8, 0xfe, 0xfa, 0xff, 0x00, 0xf7, 0x0a, 0x05, 0xf1, 0xc5, 0xed, 0x0b,
  0x19, 0x6a, 0xfe, 0x72, 0xc6, 0x09, 0x5e, 0xf5, 0xf7, 0xb6, 0x0c, 0xff,
  0xe9, 0xf3, 0xd9, 0x08, 0x2a, 0x0b, 0xdd, 0xf1, 0x02, 0xe2, 0xe2, 0xe6,
  0x05, 0xf6, 0x9c, 0x1e, 0xfa, 0x57, 0x7f, 0xdd, 0xd9, 0xce, 0xe0, 0xd5,
  0x20, 0x16, 0xfa, 0x1e, 0x2f, 0xc1, 0xfb, 0x3c, 0x3c, 0xf7, 0xf1, 0x2c,
  0x2c, 0xfc, 0x14, 0x00, 0xac, 0x52, 0x13, 0x60, 0xeb, 0x25, 0x20, 0xea,
  0xe4, 0xea, 0x65, 0x30, 0x0a, 0xe8, 0xb3, 0xf7, 0x2c, 0xec, 0xf4, 0xe3,
  0xf4, 0x31, 0x0f, 0xeb, 0xff, 0x19, 0x19, 0xcf, 0xfc, 0x15, 0x0d, 0xf2,
  0x3d, 0x10, 0x08, 0xd8, 0xf5, 0xee, 0x2f, 0x10, 0xf1, 0x1d, 0x2f, 0x1e,
  0xf1, 0x11, 0x2a, 0xf8, 0xe4, 0x20, 0xe7, 0xf8, 0xe2, 0x3e, 0xeb, 0x1a,
  0x81, 0x05, 0x05, 0x5d, 0xda, 0x0e, 0x31, 0x02, 0xc8, 0x23, 0xec, 0x45,
  0x04, 0x59, 0x11, 0xf6, 0xe2, 0x04, 0x0d, 0xf2, 0x04, 0x05, 0x0f, 0xe4,
  0x16, 0xd4, 0xec, 0xdc, 0x15, 0xd8, 0x12, 0xea, 0xe7, 0x07, 0x01, 0x24,
  0x16, 0xd9, 0x31, 0x18, 0xee, 0x17, 0xd2, 0xdc, 0xdf, 0x01, 0xfb, 0x2c,
  0xf0, 0xfb, 0xfb, 0xb6, 0x12, 0x0b, 0x0d, 0x1d, 0x29, 0xee, 0xe0, 0x08,
  0xf2, 0x81, 0x17, 0xf7, 0xe2, 0xf9, 0x22, 0x07, 0x30, 0xf4, 0x2e, 0x20,
  0x23, 0x36, 0xe6, 0xd9, 0xe4, 0x0e, 0xf7, 0x00, 0x06, 0x08, 0x1f, 0x30,
  0xc4, 0xd3, 0x16, 0xb4, 0xd7, 0x81, 0xdf, 0xd0, 0x0f, 0x1e, 0xf1, 0x00,
  0x17, 0xe2, 0x13, 0x0a, 0xe4, 0xeb, 0x29, 0x62, 0xb8, 0x32, 0xf1, 0x3d,
  0xb5, 0xe8, 0x78, 0x25, 0x24, 0xec, 0xda, 0x05, 0x4a, 0x95, 0x04, 0x55,
  0xc5, 0x1b, 0x3b, 0xde, 0xce, 0x1e, 0x2c, 0xda, 0xe7, 0xf2, 0xc3, 0xb1,
  0xfc, 0x0a, 0x25, 0xf0, 0x43, 0x22, 0x15, 0xd8, 0x05, 0xd0, 0xe7, 0xce,
  0x15, 0x0d, 0xc2, 0xf2, 0xf1, 0x2c, 0x05, 0xfa, 0x08, 0xea, 0xc5, 0xfa,
  0xd6, 0xeb, 0x1b, 0xe3, 0x1b, 0xfc, 0x08, 0x01, 0x41, 0xf4, 0xe9, 0x3b,
  0xfd, 0x1b, 0x03, 0x24, 0x00, 0x06, 0xb5, 0xd6, 0x04, 0xeb, 0xe8, 0x09,
  0xdc, 0x30, 0x13, 0xe0, 0x11, 0xee, 0xef, 0xc0, 0xdf, 0x55, 0xfe, 0x14,
  0x04, 0x08, 0xec, 0xf6, 0x08, 0x7a, 0xd9, 0xe2, 0xd7, 0x14, 0xf3, 0x0b,
  0x08, 0x0b, 0xe1, 0xea, 0x0a, 0x7f, 0xf7, 0x00, 0xfd, 0x1e, 0x10, 0x03,
  0xf4, 0x07, 0xe3, 0xb1, 0xfd, 0x36, 0xc9, 0xac, 0xcd, 0x24, 0x21, 0x42,
  0x04, 0x13, 0xf7, 0x46, 0xc0, 0xce, 0xbb, 0x41, 0xf2, 0xbc, 0xc1, 0x25,
  0xe7, 0x40, 0x03, 0x97, 0x24, 0xef, 0x15, 0x02, 0x2a, 0xfb, 0xde, 0xbe,
  0x2f, 0xfb, 0x29, 0xf9, 0xf7, 0xec, 0xbf, 0xfb, 0x2d, 0xf4, 0xe1, 0x45,
  0xdd, 0x02, 0xec, 0xfb, 0xf6, 0xd8, 0x3b, 0x3b, 0x37, 0x0e, 0x34, 0x81,
  0xdb, 0xe0, 0xfb, 0x1b, 0xc3, 0xfb, 0xc5, 0x2f, 0x46, 0xd8, 0x0a, 0xf9,
  0xc8, 0x16, 0xe1, 0xf7, 0xb6, 0xed, 0xc0, 0xcd, 0xe6, 0x34, 0x13, 0xd9,
  0xe3, 0xee, 0x10, 0x32, 0xee, 0x13, 0xe5, 0x1f, 0xfc, 0xc0, 0x36, 0x1a,
  0xd7, 0xd5, 0x18, 0x1d, 0xf3, 0xe3, 0xf2, 0x13, 0x1e, 0xc1, 0x28, 0xe9,
  0xba, 0x7f, 0x04, 0xaf, 0xe7, 0x10, 0x1c, 0x26, 0x16, 0x2a, 0xe9, 0xdd,
  0xe4, 0xf2, 0x25, 0x60, 0xfa, 0x20, 0x9f, 0x34, 0xe7, 0xeb, 0x15, 0xed,
  0xf7, 0x1d, 0x02, 0xec, 0x01, 0x32, 0x06, 0xf1, 0x0e, 0x0c, 0x02, 0x9f,
  0xde, 0x06, 0xfe, 0x17, 0x07, 0xee, 0xb7, 0xed, 0xf3, 0x00, 0xf0, 0x1a,
  0xd3, 0x18, 0xfd, 0xca, 0x05, 0xe2, 0xf5, 0x02, 0xf1, 0x7f, 0x02, 0x0e,
  0x25, 0x05, 0xca, 0x09, 0x03, 0x1e, 0xdb, 0x0d, 0xea, 0xf0, 0x0a, 0x13,
  0x06, 0xfc, 0x17, 0x11, 0x19, 0x16, 0x04, 0x24, 0x13, 0x1e, 0xe4, 0xeb,
  0xd2, 0x41, 0x08, 0xe6, 0xfb, 0x79, 0x26, 0x91, 0xfc, 0xe0, 0x85, 0x6d,
  0xe4, 0xfa, 0x0e, 0x2a, 0xe7, 0x11, 0x9d, 0x28, 0xe0, 0x81, 0x28, 0x83,
  0x0c, 0xe9, 0xd7, 0x93, 0xfa, 0x06, 0x00, 0x1c, 0xff, 0xce, 0xfe, 0x1e,
  0x20, 0x83, 0xee, 0xe7, 0x14, 0xf6, 0xee, 0x43, 0xf1, 0x04, 0x01, 0x68,
  0xea, 0x0e, 0xfe, 0x00, 0xf0, 0xec, 0xef, 0xe5, 0xed, 0x88, 0x14, 0x31,
  0x07, 0x33, 0xe9, 0x21, 0xa4, 0xab, 0xc5, 0xd5, 0x12, 0x5f, 0x00, 0xfc,
  0xfa, 0xf2, 0xdf, 0x12, 0xf2, 0xc9, 0x10, 0xfb, 0xce, 0x08, 0x0a, 0xb8,
  0xfb, 0xfd, 0xb5, 0x13, 0xd0, 0xf2, 0xb2, 0xde, 0x29, 0xb7, 0x1a, 0x81,
  0x28, 0xed, 0x02, 0x41, 0xe3, 0x94, 0x39, 0xf3, 0x7f, 0xdc, 0x15, 0x23,
  0x00, 0xd3, 0xfc, 0xf5, 0x00, 0x06, 0xdb, 0xe4, 0x03, 0xfe, 0x03, 0x2c,
  0xc1, 0xd5, 0xf7, 0x45, 0x07, 0x7a, 0x82, 0x65, 0x27, 0x1e, 0xd6, 0xf8,
  0x12, 0x26, 0x37, 0xff, 0xde, 0xff, 0xf7, 0x4c, 0x15, 0xf9, 0xc7, 0xce,
  0x35, 0xdb, 0xe1, 0xd3, 0x0b, 0xf2, 0x89, 0x0d, 0xfb, 0x05, 0xdd, 0x39,
  0x28, 0xf5, 0xfb, 0xc8, 0x1e, 0x0f, 0x05, 0x27, 0xfd, 0x3f, 0xed, 0x7f,
  0xf4, 0xfc, 0x1d, 0x42, 0x25, 0x9e, 0x0f, 0x19, 0xb4, 0xfa, 0xee, 0x2a,
  0x13, 0x50, 0xf3, 0xa2, 0xd1, 0x89, 0x43, 0x9f, 0xc7, 0x00, 0x08, 0xd5,
  0xf5, 0x18, 0xf3, 0xbd, 0x07, 0x52, 0xe0, 0xc6, 0x9e, 0xeb, 0xe2, 0x19,
  0xea, 0xda, 0x38, 0x79, 0xdb, 0x21, 0xf8, 0x11, 0xe1, 0xc6, 0x13, 0xe9,
  0x08, 0xf8, 0xbf, 0x14, 0x6e, 0x9f, 0x0f, 0x33, 0x9e, 0x11, 0xff, 0x02,
  0xa2, 0x94, 0x35, 0x06, 0x49, 0xdf, 0xdf, 0x5e, 0xcf, 0x81, 0xf1, 0xf2,
  0xf6, 0xe9, 0x00, 0xf0, 0xee, 0x0b, 0xe2, 0xd2, 0x15, 0xd8, 0xf6, 0x57,
  0xc2, 0x30, 0xc0, 0x1c, 0x2c, 0x1e, 0xd9, 0xee, 0xff, 0xfa, 0xf6, 0xf7,
  0xfc, 0x1b, 0x1d, 0x25, 0x25, 0xeb, 0xe7, 0xee, 0xcf, 0x17, 0x04, 0x27,
  0xf7, 0xff, 0x81, 0xcd, 0xf4, 0xdb, 0xe5, 0xfd, 0x07, 0x1a, 0x1a, 0xc7,
  0x48, 0xfb, 0x0e, 0x1d, 0xb8, 0x48, 0x24, 0x13, 0x15, 0x13, 0xfd, 0x12,
  0x0d, 0x08, 0x0c, 0x0a, 0xe0, 0x25, 0xe9, 0xef, 0x03, 0xcd, 0xc8, 0x19,
  0xeb, 0x08, 0xf7, 0x0f, 0x04, 0x29, 0x28, 0xd5, 0x06, 0x23, 0x3a, 0xd7,
  0x0d, 0x19, 0x21, 0x16, 0x27, 0xde, 0xe7, 0xde, 0xdd, 0xe0, 0x26, 0xf7,
  0x33, 0x08, 0xee, 0x00, 0xfe, 0x0e, 0x24, 0x22, 0xe5, 0x1c, 0x42, 0xff,
  0xf9, 0xfa, 0x04, 0x1e, 0x25, 0xee, 0x03, 0x3a, 0xff, 0xe1, 0x12, 0xe7,
  0xd5, 0xef, 0x05, 0xe6, 0xea, 0x25, 0x36, 0xee, 0xe7, 0x18, 0xdc, 0x7f,
  0xea, 0x24, 0xd6, 0x0b, 0xd7, 0x13, 0x1d, 0xf8, 0x0a, 0xce, 0xe1, 0x28,
  0x1e, 0x10, 0x12, 0xf3, 0x00, 0xf6, 0x12, 0xfd, 0xe1, 0x07, 0x07, 0x23,
  0x00, 0x03, 0xfe, 0xf9, 0x20, 0xfc, 0xf7, 0x01, 0xfa, 0x01, 0xde, 0x1b,
  0x08, 0x03, 0x33, 0x11, 0x00, 0x05, 0x20, 0x10, 0xe6, 0x14, 0xb8, 0x21,
  0x01, 0x4a, 0xfc, 0x0e, 0x25, 0x0f, 0xf2, 0x46, 0xed, 0xd5, 0x0f, 0xef,
  0xdf, 0xbe, 0xff, 0x7f, 0xf9, 0x2c, 0x04, 0x30, 0xe9, 0x49, 0x01, 0x4c,
  0xb7, 0x30, 0xf6, 0x12, 0x22, 0x20, 0x1e, 0xf7, 0xea, 0x2e, 0x1f, 0xd6,
  0x02, 0xcc, 0x9e, 0x54, 0xdc, 0xf6, 0x07, 0xe6, 0xf8, 0x18, 0xd5, 0x3d,
  0x16, 0xb5, 0x74, 0x0d, 0x4b, 0x13, 0x12, 0x81, 0xfb, 0x0b, 0x0e, 0x09,
  0x26, 0x13, 0xf5, 0x31, 0xfd, 0xd2, 0xf6, 0xee, 0x31, 0x19, 0x1a, 0xe0,
  0x09, 0x47, 0x27, 0x79, 0x1a, 0x11, 0xfa, 0x05, 0x00, 0x04, 0xf3, 0x29,
  0xe5, 0xcb, 0x13, 0x28, 0x00, 0x40, 0xd6, 0xec, 0xbe, 0x06, 0x1a, 0xf8,
  0xef, 0x4d, 0xe9, 0xca, 0x24, 0xca, 0xda, 0x3e, 0xea, 0x0a, 0x18, 0x3e,
  0xec, 0xee, 0xca, 0x1f, 0xdb, 0xbc, 0x1b, 0xa2, 0x0c, 0xf1, 0xf8, 0x86,
  0xd0, 0xf1, 0xe1, 0x19, 0x19, 0x05, 0xfd, 0x0f, 0x1b, 0xd6, 0x06, 0xed,
  0x20, 0x07, 0xef, 0x13, 0xf9, 0x0e, 0xff, 0x7f, 0x01, 0xec, 0xe2, 0x07,
  0x09, 0xf4, 0x1e, 0x17, 0xe2, 0xe2, 0xf4, 0x11, 0xf0, 0xe3, 0xeb, 0x62,
  0xf7, 0x18, 0xda, 0xfe, 0xf7, 0xbf, 0x2f, 0x05, 0x99, 0x26, 0x04, 0xea,
  0xe7, 0x16, 0xca, 0xc2, 0xef, 0x01, 0x0c, 0xe3, 0xfd, 0x0d, 0xda, 0xff,
  0xe7, 0xe4, 0xf0, 0x15, 0x0b, 0xd1, 0x20, 0xda, 0xc0, 0xfc, 0xfc, 0x11,
  0xd7, 0x73, 0xed, 0x1c, 0x54, 0xd3, 0x4b, 0x4c, 0xc6, 0xfc, 0xf7, 0xe2,
  0xcf, 0xe1, 0xef, 0xfe, 0xee, 0x0a, 0x1d, 0xeb, 0x1a, 0x1c, 0xee, 0x7f,
  0xff, 0x22, 0xc2, 0xc0, 0x52, 0xdd, 0xe7, 0x81, 0x2d, 0x30, 0x5f, 0xd5,
  0xfd, 0x1d, 0x0c, 0xc6, 0x1f, 0xd9, 0x0c, 0xe3, 0xb1, 0x66, 0xe8, 0xfe,
  0x0c, 0xde, 0x1d, 0x1c, 0xbb, 0x0e, 0x98, 0x43, 0xf9, 0x2f, 0x30, 0xe3,
  0x66, 0x20, 0xc1, 0xcb, 0xdf, 0x44, 0x42, 0x11, 0x0e, 0xe0, 0x24, 0x02,
  0x02, 0x33, 0x99, 0xfb, 0x2c, 0x19, 0xcf, 0x2e, 0xeb, 0x43, 0xe0, 0x15,
  0x6c, 0x40, 0x08, 0xa4, 0x1b, 0xd8, 0x15, 0x25, 0x04, 0x9c, 0xe5, 0xfb,
  0x0f, 0xc5, 0x1d, 0xf7, 0xea, 0xe7, 0x09, 0x01, 0xed, 0x03, 0xe1, 0xe4,
  0x0d, 0x1d, 0xf6, 0xde, 0xde, 0xfe, 0xdd, 0xef, 0x0a, 0xdd, 0xf8, 0x22,
  0xdf, 0x16, 0xf2, 0x06, 0xe5, 0xed, 0xf4, 0x19, 0x0b, 0x33, 0x0b, 0xfe,
  0x19, 0xf8, 0xf8, 0x1d, 0xde, 0x0b, 0x14, 0x04, 0x32, 0x1e, 0x28, 0x01,
  0x0f, 0x16, 0x7f, 0x0e, 0xff, 0x22, 0xd7, 0x0f, 0x01, 0x81, 0xc8, 0x24,
  0xe8, 0x11, 0xd7, 0x0b, 0x03, 0x04, 0x12, 0x17, 0x2a, 0x34, 0xed, 0xbb,
  0x04, 0x0c, 0x17, 0xe4, 0xf6, 0xcc, 0x07, 0x30, 0x14, 0x0a, 0x17, 0x24,
  0xe1, 0x46, 0x1d, 0x0e, 0x08, 0xce, 0x72, 0xd9, 0xac, 0x28, 0xfd, 0x97,
  0x11, 0x0f, 0xe7, 0xef, 0x33, 0xfd, 0xa3, 0x3c, 0x43, 0xc5, 0x14, 0xd2,
  0xfc, 0xc6, 0x0e, 0x3b, 0x10, 0xe9, 0x43, 0x24, 0xd8, 0x25, 0x51, 0xd7,
  0xf1, 0x18, 0x1e, 0x2d, 0x11, 0x48, 0x0d, 0xf4, 0x31, 0xd7, 0x04, 0xfa,
  0x16, 0xfd, 0x01, 0x0e, 0xd7, 0xaf, 0x02, 0x0b, 0x08, 0xe6, 0xe0, 0xe7,
  0xdd, 0xf7, 0xfa, 0xf1, 0x13, 0xfd, 0xea, 0xc0, 0x06, 0x11, 0xf3, 0x02,
  0xf3, 0xf0, 0xfc, 0x3d, 0xf8, 0x81, 0x2e, 0xee, 0x0e, 0xd7, 0x19, 0xcd,
  0xf5, 0x15, 0x1e, 0xf4, 0xb5, 0x14, 0xf0, 0xeb, 0xca, 0xef, 0xd1, 0xf7,
  0x07, 0x09, 0xee, 0x29, 0xf3, 0xfd, 0x1a, 0x01, 0x3e, 0x20, 0x2f, 0xf8,
  0x30, 0xb7, 0x01, 0xf2, 0x37, 0xf8, 0xbc, 0x40, 0xde, 0xe0, 0xd8, 0xc8,
  0x40, 0x48, 0xd7, 0x05, 0x06, 0xed, 0x37, 0xe8, 0xe4, 0xf0, 0x38, 0x9f,
  0x12, 0xff, 0xe0, 0x17, 0xf9, 0x10, 0x16, 0x36, 0xeb, 0xa2, 0x25, 0x27,
  0x14, 0xfb, 0x18, 0x42, 0xc8, 0xf6, 0x22, 0x0a, 0xc5, 0x7f, 0xd2, 0x4a,
  0xcf, 0x0f, 0x13, 0x71, 0x21, 0x05, 0x2a, 0x5c, 0x06, 0xd9, 0x08, 0x06,
  0x0a, 0x13, 0xfa, 0x53, 0x03, 0xf4, 0xef, 0x16, 0x16, 0xdb, 0x0b, 0xe4,
  0xfa, 0x07, 0x08, 0xe2, 0x60, 0xd7, 0x10, 0xe8, 0x05, 0x0c, 0xff, 0x0f,
  0x13, 0x04, 0x40, 0x10, 0xf0, 0x09, 0x16, 0x16, 0xc9, 0x11, 0x08, 0x81,
  0xf8, 0x08, 0x06, 0xed, 0xd5, 0xf9, 0x0d, 0x07, 0x07, 0x11, 0xf0, 0xd7,
  0xf8, 0xc4, 0xd5, 0x0c, 0xf3, 0xcd, 0x16, 0x29, 0x52, 0x05, 0xc7, 0x86,
  0xf2, 0x26, 0xda, 0xf1, 0x07, 0x14, 0xb6, 0x12, 0x2e, 0xfb, 0xf3, 0x01,
  0x26, 0xd0, 0x03, 0x11, 0x81, 0xc8, 0x2d, 0x36, 0xf0, 0xf2, 0xf5, 0xef,
  0xcb, 0xee, 0xf4, 0xff, 0x04, 0xff, 0x30, 0xbd, 0x01, 0x00, 0xd5, 0x19,
  0x12, 0xca, 0x19, 0xf0, 0x0b, 0xe8, 0x25, 0xee, 0xfa, 0x06, 0x08, 0xcc,
  0x09, 0x3c, 0x55, 0x39, 0x0c, 0x16, 0xd4, 0x0a, 0xe4, 0xe3, 0x01, 0x08,
  0xf9, 0xa5, 0x1d, 0x0b, 0xde, 0x28, 0xe6, 0xfe, 0x08, 0x78, 0xd4, 0xdf,
  0xe7, 0x0e, 0x00, 0xf1, 0xd9, 0x3b, 0x2e, 0xe8, 0x1f, 0xe9, 0xe7, 0xf0,
  0xff, 0xc1, 0xfe, 0x28, 0x18, 0xcf, 0xaf, 0x25, 0x30, 0xc0, 0x21, 0x3b,
  0xef, 0xc7, 0x1c, 0xd5, 0x1e, 0xdf, 0xdb, 0x45, 0xa5, 0x53, 0x21, 0x17,
  0x4a, 0xfa, 0x36, 0xfe, 0xfc, 0x5c, 0x1a, 0xc3, 0x15, 0xe2, 0xc2, 0x0f,
  0xef, 0x2b, 0xd7, 0x0b, 0x06, 0x81, 0x0a, 0x56, 0x00, 0xd6, 0xde, 0x6c,
  0x17, 0xf5, 0xc3, 0x21, 0x01, 0xf6, 0x50, 0xd2, 0xf7, 0x0c, 0x9a, 0x26,
  0xfa, 0x16, 0xbf, 0x1e, 0xe3, 0xc0, 0xdf, 0x9b, 0x03, 0xe5, 0x48, 0xea,
  0x23, 0x36, 0x1f, 0xe5, 0xf6, 0x0f, 0xea, 0xf8, 0xba, 0x0f, 0xb6, 0xa8,
  0x04, 0xd6, 0xe9, 0x2e, 0x60, 0xed, 0xfe, 0x47, 0x1e, 0xf9, 0x3e, 0x7f,
  0xd7, 0xf2, 0xb3, 0xae, 0x13, 0x32, 0x32, 0x1f, 0xba, 0xc0, 0x21, 0xdb,
  0x0b, 0xc7, 0xb0, 0x49, 0x23, 0xe0, 0xfe, 0x44, 0xe7, 0xc5, 0x3e, 0x01,
  0x22, 0xda, 0xe1, 0xe3, 0xef, 0x26, 0x0c, 0xce, 0x7f, 0xc4, 0x18, 0xe0,
  0x09, 0x1e, 0xdc, 0x48, 0x06, 0x20, 0x08, 0xfe, 0x02, 0x20, 0xdc, 0xd2,
  0x94, 0xdf, 0xe1, 0x3c, 0xff, 0xfe, 0xdf, 0x0a, 0xec, 0x1f, 0x10, 0x2c,
  0x1b, 0xfd, 0x0c, 0xf4, 0x17, 0x91, 0xe4, 0x20, 0x12, 0x0b, 0x31, 0xec,
  0xda, 0xf0, 0xed, 0xea, 0xd1, 0x13, 0x33, 0xb3, 0x3e, 0x3f, 0xb2, 0x12,
  0xf7, 0x41, 0xec, 0x3f, 0x81, 0xb4, 0x07, 0x20, 0x19, 0xf6, 0xf2, 0xf2,
  0x20, 0xbd, 0x81, 0xe9, 0xde, 0xf2, 0xde, 0x46, 0x41, 0x36, 0x7f, 0xf1,
  0x28, 0x9d, 0x68, 0x1a, 0x92, 0x04, 0x82, 0x22, 0x0f, 0xaf, 0x2f, 0x57,
  0xde, 0x87, 0x5c, 0x54, 0xc6, 0xd7, 0xb8, 0x59, 0x73, 0xb9, 0x39, 0xff,
  0xa7, 0x39, 0x14, 0x40, 0xee, 0x9d, 0x39, 0x51, 0xe8, 0x26, 0x09, 0xf3,
  0xcd, 0xd3, 0x3a, 0xe7, 0xdd, 0x1c, 0x0a, 0xfc, 0x2a, 0xf1, 0x16, 0xe6,
  0x32, 0xf3, 0xf4, 0xda, 0x39, 0xdb, 0x12, 0xe1, 0x09, 0xf7, 0x81, 0xf1,
  0x02, 0x3d, 0xd9, 0x00, 0xf8, 0x06, 0xd6, 0x12, 0xed, 0x91, 0x01, 0xf6,
  0x14, 0xd8, 0x21, 0x07, 0xa1, 0x16, 0x0a, 0xcf, 0xe8, 0x21, 0x23, 0xfd,
  0xc8, 0xfa, 0x16, 0x20, 0xee, 0xff, 0xf8, 0xe9, 0x09, 0x45, 0x0c, 0xdd,
  0xdc, 0xf4, 0x16, 0xf9, 0xd3, 0xe2, 0xf1, 0xe1, 0xf8, 0x00, 0xf9, 0x10,
  0x00, 0xe7, 0xf9, 0x06, 0xec, 0x00, 0x16, 0x1c, 0xfa, 0x14, 0x01, 0x20,
  0xed, 0xfd, 0x7f, 0x1b, 0x17, 0xf3, 0xe9, 0xfe, 0x1e, 0xcf, 0x17, 0x27,
  0x06, 0x08, 0x1d, 0xf0, 0xeb, 0xfd, 0x15, 0xe9, 0xe1, 0x11, 0xd8, 0xf1,
  0xf3, 0xe1, 0xfd, 0xf4, 0x33, 0x15, 0x05, 0xe2, 0x0f, 0xed, 0xee, 0xd3,
  0x32, 0xef, 0xa1, 0xe1, 0x05, 0xf5, 0xfe, 0x0f, 0xbe, 0xc4, 0xf4, 0x12,
  0xf2, 0x26, 0x0c, 0x0f, 0xfd, 0x14, 0x2a, 0x04, 0x17, 0x09, 0x05, 0xfa,
  0x4b, 0xd1, 0x13, 0x1a, 0x03, 0x18, 0x19, 0xd8, 0xf7, 0x65, 0x05, 0x10,
  0x15, 0x08, 0x04, 0xed, 0xcd, 0xef, 0x15, 0xe6, 0x03, 0xf8, 0xe9, 0xd0,
  0x3e, 0x0b, 0xcc, 0xf3, 0x47, 0xf7, 0xfb, 0x02, 0x7f, 0x10, 0x3f, 0x4f,
  0x1a, 0xbc, 0x0c, 0x19, 0xf1, 0x10, 0xad, 0x02, 0x02, 0x04, 0x0d, 0x81,
  0xc2, 0xad, 0xd5, 0xe3, 0xe5, 0xc5, 0x00, 0x37, 0x21, 0xfb, 0x3a, 0xaf,
  0x31, 0xf4, 0x40, 0xcd, 0xe7, 0x03, 0x42, 0x0e, 0xea, 0x3b, 0x62, 0x01,
  0xf6, 0x43, 0xb5, 0x2e, 0x15, 0xfe, 0x10, 0xf5, 0xe0, 0xe2, 0xf0, 0xad,
  0x0b, 0x5b, 0x1d, 0xea, 0xed, 0x10, 0xd2, 0x23, 0x03, 0x06, 0xdc, 0x11,
  0x1b, 0x0f, 0x3a, 0xf6, 0xf4, 0x17, 0x07, 0xfb, 0x18, 0x2b, 0x00, 0xdf,
  0xe3, 0xdd, 0x05, 0x39, 0xd9, 0x11, 0x96, 0x40, 0x44, 0x04, 0xf6, 0xd6,
  0xb5, 0x43, 0xf3, 0xfa, 0xe2, 0xed, 0xfc, 0xe0, 0xd5, 0x01, 0xd9, 0xc8,
  0xfb, 0xb1, 0xec, 0x11, 0xee, 0x2e, 0x0d, 0xec, 0x05, 0xab, 0x14, 0x1e,
  0xc4, 0x21, 0xe0, 0xaa, 0xf9, 0x12, 0x2f, 0xee, 0x37, 0xa3, 0x01, 0x42,
  0xde, 0x55, 0x81, 0x8c, 0xd5, 0xea, 0xdb, 0x1f, 0xe8, 0xf2, 0xe3, 0xe0,
  0xe9, 0x3c, 0x1f, 0x0b, 0x15, 0x26, 0xa1, 0xfc, 0x15, 0x37, 0xd5, 0xd1,
  0xf2, 0x06, 0x2e, 0xe5, 0xd7, 0xea, 0xec, 0xf5, 0x2c, 0xf2, 0x81, 0x2a,
  0xf6, 0xf3, 0xe4, 0xe4, 0x0f, 0xc9, 0x3f, 0x1e, 0xfb, 0x1b, 0xb3, 0xef,
  0x20, 0xf6, 0x0c, 0xf4, 0x16, 0xf8, 0xe0, 0xb9, 0x22, 0xe3, 0x07, 0x38,
  0x30, 0xef, 0xf7, 0x4e, 0x3d, 0xb7, 0xeb, 0x1d, 0xe9, 0xf9, 0xee, 0xaf,
  0x01, 0x14, 0x33, 0xf6, 0xc7, 0xca, 0xcc, 0xca, 0xcc, 0x3d, 0x39, 0x14,
  0xe0, 0x0c, 0xf4, 0xc2, 0x34, 0xe0, 0x07, 0x10, 0x03, 0x0c, 0xbe, 0xec,
  0xe5, 0xbe, 0xe6, 0x01, 0x08, 0x10, 0xea, 0xe7, 0xdb, 0x0b, 0xe7, 0xeb,
  0x13, 0x05, 0x20, 0x00, 0xf0, 0x28, 0xde, 0x34, 0x0c, 0xc9, 0x01, 0x27,
  0xf0, 0xa3, 0x0c, 0xe2, 0xba, 0xdd, 0x35, 0x04, 0xb2, 0x30, 0x3c, 0xc9,
  0xb6, 0x55, 0x0b, 0x25, 0xcc, 0xd9, 0x81, 0xdd, 0x20, 0xf0, 0x14, 0x22,
  0xd5, 0xf4, 0xe6, 0x4f, 0xf4, 0xdc, 0xaa, 0xf0, 0xf4, 0xbc, 0x01, 0x06,
  0xe0, 0xf0, 0x22, 0xd7, 0x22, 0xe7, 0xa3, 0x10, 0x12, 0x15, 0x25, 0xe8,
  0x00, 0x0d, 0xb5, 0xeb, 0x10, 0xc0, 0x25, 0x2d, 0xff, 0xf5, 0x24, 0x05,
  0x15, 0xd2, 0x10, 0x39, 0xdf, 0x29, 0x11, 0x19, 0xf0, 0xf9, 0x24, 0x26,
  0xbe, 0x7f, 0xd1, 0xf2, 0xea, 0xfb, 0xe7, 0x14, 0xff, 0xe5, 0xd5, 0x0a,
  0x42, 0x17, 0xff, 0x09, 0xf8, 0x2d, 0xfd, 0xf5, 0xf0, 0x05, 0xea, 0x06,
  0x08, 0x0c, 0x05, 0x22, 0x0b, 0x00, 0x26, 0xcc, 0x19, 0xfe, 0xf0, 0xd9,
  0x27, 0x14, 0xdb, 0x39, 0xe9, 0xe3, 0x16, 0x19, 0xf7, 0xb6, 0x04, 0x33,
  0xfb, 0x16, 0xf2, 0x24, 0x2a, 0x08, 0xf7, 0xf4, 0x12, 0x6f, 0x09, 0xe8,
  0x2b, 0x0a, 0xf6, 0xd9, 0xd5, 0x4c, 0x03, 0xcc, 0xe5, 0x0b, 0x2d, 0x7f,
  0x04, 0xf7, 0x3f, 0xeb, 0xf2, 0xe9, 0xe5, 0x04, 0xee, 0x9e, 0xee, 0x16,
  0x19, 0xf0, 0x68, 0xfb, 0x50, 0x4b, 0xff, 0xac, 0xa2, 0xde, 0x04, 0xc9,
  0xcb, 0xab, 0xb6, 0xd5, 0x54, 0x0f, 0x02, 0xff, 0x01, 0x05, 0xc9, 0x81,
  0xf6, 0x04, 0xee, 0x04, 0xe3, 0xe8, 0xd4, 0x14, 0xaa, 0xb9, 0xb4, 0x15,
  0x01, 0xcc, 0x18, 0x1b, 0xe0, 0xb1, 0x2d, 0x33, 0xfe, 0x18, 0xe9, 0xdb,
  0x56, 0xf9, 0xf4, 0x5e, 0xa8, 0x44, 0x61, 0x09, 0x70, 0xc5, 0xfd, 0x28,
  0xe1, 0x2c, 0xa8, 0x2d, 0xe0, 0x15, 0xf9, 0xb0, 0x22, 0xfa, 0x4a, 0xe1,
  0x0a, 0x33, 0xd3, 0xc2, 0x36, 0xdd, 0x1c, 0x96, 0xa4, 0x3d, 0xfb, 0xe9,
  0xe5, 0x09, 0xdb, 0x0a, 0xd5, 0x70, 0xd6, 0x3e, 0x1a, 0x7f, 0x01, 0xf7,
  0x1a, 0xe8, 0xfa, 0x58, 0xd9, 0xe9, 0x6a, 0x11, 0xed, 0xed, 0xff, 0x12,
  0xfe, 0xfb, 0xe1, 0x2e, 0xe3, 0x7a, 0x36, 0x41, 0xf8, 0x59, 0xa6, 0xf2,
  0xf7, 0x1a, 0x5b, 0xfc, 0x0c, 0x1f, 0xef, 0xec, 0x0b, 0xc3, 0x7f, 0xf3,
  0x19, 0xe0, 0x00, 0x0a, 0x1a, 0x01, 0x00, 0xfd, 0xeb, 0xec, 0xdd, 0xcf,
  0xee, 0x0f, 0x16, 0x12, 0x11, 0x0b, 0x2f, 0x26, 0xf4, 0x04, 0xcb, 0xf8,
  0x04, 0xe8, 0x0c, 0xc5, 0x1c, 0xe8, 0xfe, 0xef, 0x24, 0x44, 0x22, 0x13,
  0xff, 0xab, 0x13, 0xe5, 0xef, 0x09, 0xf3, 0xea, 0x16, 0x11, 0x34, 0xf4,
  0xca, 0x07, 0x42, 0xf9, 0x23, 0x02, 0xe8, 0xf8, 0x19, 0xcb, 0xe4, 0x3e,
  0x16, 0x45, 0xfb, 0xff, 0x01, 0x31, 0x23, 0xcf, 0xb3, 0xde, 0x0b, 0x04,
  0xf8, 0x03, 0xd6, 0x27, 0xe6, 0xc3, 0xd3, 0x11, 0x0b, 0xb0, 0xc7, 0xe1,
  0x1e, 0xe1, 0x42, 0x05, 0x0b, 0xf0, 0xf6, 0xfa, 0xda, 0x41, 0x9e, 0xf6,
  0xfe, 0x40, 0xe4, 0xfa, 0x7f, 0xf4, 0xc1, 0x69, 0x5e, 0xae, 0x06, 0x4f,
  0xc4, 0xf5, 0x03, 0xc8, 0xfb, 0xea, 0x05, 0xea, 0x17, 0x1b, 0x0d, 0x0f,
  0x0f, 0xfd, 0xf5, 0x0d, 0x02, 0xed, 0xf8, 0xe0, 0x61, 0x67, 0x4a, 0x01,
  0x14, 0x12, 0xd1, 0x4e, 0x81, 0xd1, 0x11, 0x18, 0x20, 0x19, 0xeb, 0xcc,
  0xe6, 0xf9, 0x6a, 0x15, 0xe2, 0xfd, 0xfc, 0xb6, 0x1a, 0x17, 0x15, 0x03,
  0x0a, 0xdd, 0x28, 0x32, 0xf8, 0xa3, 0x09, 0xda, 0xd9, 0xd8, 0x0a, 0xed,
  0xe6, 0x0d, 0x3c, 0x09, 0x0c, 0x3f, 0xe6, 0xea, 0xe2, 0x01, 0xcf, 0x02,
  0x17, 0x1f, 0x2d, 0x2d, 0x00, 0x27, 0xfe, 0xfd, 0xc0, 0x24, 0xf2, 0xf0,
  0xf1, 0x47, 0xfb, 0xaf, 0xef, 0xba, 0xcd, 0x7f, 0xe5, 0x0a, 0x0e, 0x04,
  0xf1, 0xe9, 0xb7, 0x1e, 0xdb, 0xb6, 0xf4, 0x9f, 0x11, 0xe2, 0xe8, 0x8a,
  0xec, 0x00, 0xe9, 0xf6, 0x1d, 0x0a, 0xf2, 0x2f, 0x18, 0xb2, 0x01, 0xf9,
  0x1f, 0xff, 0x03, 0x28, 0xf0, 0xf1, 0xfb, 0x7b, 0x0a, 0x11, 0xf6, 0x0e,
  0xfe, 0x08, 0x05, 0xe5, 0xe9, 0xce, 0xc1, 0x1c, 0xe6, 0xf7, 0x56, 0xfa,
  0xe4, 0x37, 0x40, 0xce, 0x2b, 0x12, 0x00, 0x10, 0x25, 0xde, 0x08, 0xf2,
  0x81, 0xf8, 0x3c, 0xed, 0xf8, 0x06, 0xf8, 0x50, 0x06, 0x0a, 0x11, 0xdf,
  0xf7, 0xd7, 0xf0, 0xca, 0xb1, 0x0d, 0x01, 0xfb, 0x1f, 0x08, 0xef, 0xdf,
  0xc2, 0xf1, 0xfa, 0x09, 0x22, 0xda, 0xec, 0xf1, 0x36, 0xe8, 0xfe, 0xcd,
  0x12, 0x20, 0xef, 0xdd, 0x99, 0xea, 0xd9, 0x14, 0x1d, 0x15, 0x16, 0xcf,
  0x09, 0xf8, 0x15, 0x12, 0xf2, 0xbc, 0x1a, 0xc2, 0x26, 0x07, 0x08, 0x20,
  0x1f, 0xc1, 0x1c, 0xd2, 0xf1, 0xd1, 0x0c, 0x2b, 0xf1, 0x1a, 0x24, 0xeb,
  0xd8, 0x1e, 0x40, 0x1a, 0x0e, 0xfb, 0xea, 0x2a, 0x35, 0xe4, 0x25, 0x0b,
  0xd9, 0x0e, 0x1c, 0x0f, 0x0e, 0xf9, 0x4c, 0xef, 0xbf, 0xe7, 0xfa, 0x0a,
  0xd8, 0xd0, 0xfc, 0xc6, 0x3a, 0x12, 0x44, 0xda, 0xea, 0x0a, 0xff, 0xe6,
  0x7f, 0x32, 0x95, 0x1e, 0xac, 0x27, 0xce, 0x2b, 0x11, 0x78, 0xda, 0xe9,
  0xfa, 0x12, 0xc5, 0x0d, 0xda, 0xe9, 0x20, 0xd6, 0x0e, 0xeb, 0xfe, 0xed,
  0xeb, 0xb8, 0x0d, 0xe2, 0x00, 0xef, 0xe1, 0x2d, 0x0a, 0xdd, 0x0f, 0x20,
  0x19, 0x83, 0x1d, 0x11, 0x24, 0xfa, 0xf1, 0x68, 0xbb, 0x1f, 0x29, 0xf4,
  0x2d, 0x18, 0x4e, 0xea, 0xd8, 0x6a, 0xee, 0xb6, 0xe8, 0xe6, 0xbf, 0x26,
  0x0f, 0xf3, 0xff, 0x19, 0xf9, 0x1a, 0x05, 0x7f, 0xf4, 0xb7, 0xcf, 0x18,
  0xd1, 0x05, 0xd3, 0x09, 0xf7, 0xe9, 0x13, 0x0d, 0x11, 0x1f, 0x0c, 0xe2,
  0x1c, 0x15, 0x26, 0xee, 0xf9, 0xf2, 0xf8, 0x08, 0x01, 0x13, 0xf6, 0x19,
  0xff, 0x7f, 0x0a, 0xfa, 0xfc, 0xf6, 0x28, 0x06, 0xc6, 0x22, 0x05, 0xe1,
  0x00, 0x18, 0xee, 0xdb, 0x25, 0xff, 0xd5, 0x21, 0x63, 0xf0, 0xee, 0xe4,
  0x11, 0xdf, 0xf4, 0x19, 0x04, 0xd7, 0x1b, 0x12, 0x19, 0xf5, 0x37, 0xd7,
  0xdb, 0xc6, 0x3f, 0xdf, 0xe7, 0x81, 0x01, 0xe4, 0xfb, 0x26, 0xe7, 0x09,
  0xff, 0xd3, 0x0e, 0xfb, 0xe5, 0xfe, 0x1b, 0x36, 0xda, 0x38, 0x08, 0x2b,
  0xcf, 0x03, 0x44, 0x20, 0x1e, 0xe1, 0xec, 0x10, 0x35, 0xb9, 0x19, 0x19,
  0xe9, 0x13, 0x29, 0xe0, 0xbb, 0x36, 0x1a, 0xe2, 0xe2, 0x05, 0xf9, 0x05,
  0xf1, 0xdb, 0xf8, 0xe8, 0x3a, 0x13, 0x0f, 0xe0, 0xfe, 0xde, 0xf6, 0xcd,
  0x3f, 0x1b, 0xdd, 0xfa, 0x09, 0x1b, 0x20, 0xec, 0xfd, 0xc9, 0x7f, 0x08,
  0x00, 0xd6, 0x2d, 0x12, 0x00, 0x05, 0x1b, 0xf5, 0xc1, 0x05, 0xe3, 0x05,
  0xe7, 0xf1, 0x1c, 0xea, 0x08, 0x19, 0x2d, 0x20, 0x11, 0x09, 0xf4, 0x1e,
  0xf9, 0xe2, 0xeb, 0xf1, 0x27, 0xfa, 0x12, 0x10, 0x26, 0x29, 0x18, 0x0e,
  0x1d, 0xcc, 0x0a, 0xf1, 0x07, 0x20, 0xf9, 0xcd, 0x20, 0x27, 0x18, 0xff,
  0xd3, 0x00, 0x33, 0xda, 0xef, 0x1f, 0xf4, 0xf2, 0xf8, 0x34, 0xcd, 0xb5,
  0x95, 0xc0, 0xa9, 0xd2, 0xfe, 0xae, 0xcd, 0xff, 0xfa, 0xd6, 0x2d, 0x17,
  0xd1, 0x06, 0x2f, 0x37, 0xbc, 0x0c, 0xec, 0x05, 0xf1, 0xd3, 0xe4, 0xc3,
  0xdb, 0x24, 0xca, 0xf4, 0x00, 0xc4, 0x05, 0xc0, 0x35, 0xc2, 0x31, 0x81,
  0x0e, 0xf7, 0x4a, 0xd6, 0x3e, 0xec, 0xaa, 0xd9, 0x44, 0xfc, 0xdf, 0x00,
  0x38, 0x29, 0x0e, 0xa5, 0xf8, 0xc5, 0x22, 0x28, 0x0a, 0xb5, 0x1d, 0xba,
  0xf2, 0xd9, 0xc9, 0x1f, 0x19, 0x18, 0xed, 0x03, 0xd6, 0xcb, 0xec, 0x0f,
  0xf1, 0xe4, 0x02, 0xf2, 0x07, 0x2b, 0xd9, 0x25, 0x38, 0xd5, 0x09, 0xf5,
  0xf5, 0xfd, 0x81, 0xec, 0x1c, 0x04, 0x35, 0xf3, 0xfa, 0x1a, 0xf0, 0xff,
  0xec, 0xd4, 0x05, 0xf2, 0xf5, 0x26, 0xfe, 0xfe, 0x98, 0x12, 0x1a, 0xf2,
  0x0d, 0x00, 0x1c, 0x1b, 0xeb, 0xb7, 0xef, 0xd5, 0x11, 0xe9, 0xed, 0xfd,
  0x3a, 0x25, 0xec, 0xa4, 0xfe, 0x17, 0xf8, 0x12, 0xee, 0xf8, 0x0c, 0xe5,
  0xfb, 0x04, 0xe4, 0xa0, 0xff, 0xf9, 0xa4, 0x74, 0x01, 0xf5, 0x0b, 0x35,
  0xf0, 0x04, 0xa9, 0x02, 0xf3, 0xa5, 0xf2, 0xf8, 0x20, 0xff, 0xca, 0x97,
  0xee, 0xf2, 0xf4, 0x02, 0xfc, 0xe5, 0xef, 0x1f, 0x19, 0xc2, 0x1a, 0xfb,
  0x1e, 0x0f, 0x0a, 0x0d, 0xe5, 0x09, 0x0b, 0x7f, 0xe7, 0xfd, 0xe2, 0xf6,
  0xe3, 0xfe, 0x07, 0xf6, 0xee, 0xae, 0x00, 0x20, 0x17, 0x1f, 0xf1, 0x0a,
  0xdb, 0x11, 0xff, 0xf8, 0xec, 0x37, 0xfb, 0x96, 0xd5, 0xed, 0xb3, 0x79,
  0xd8, 0x02, 0x02, 0x18, 0xe2, 0xfe, 0xb2, 0x2a, 0xe5, 0xa2, 0xfc, 0xc3,
  0x0a, 0xea, 0xdd, 0x92, 0xe8, 0xf7, 0x07, 0x08, 0x1a, 0xf5, 0xf7, 0x27,
